{
  "version": "1.0",
  "truncation": null,
  "padding": null,
  "added_tokens": [
    {
      "id": 0,
      "content": "[PAD]",
      "single_word": false,
      "lstrip": false,
      "rstrip": false,
      "normalized": false,
      "special": true
    },
    {
      "id": 1,
      "content": "[UNK]",
      "single_word": false,
      "lstrip": false,
      "rstrip": false,
      "normalized": false,
      "special": true
    },
    {
      "id": 2,
      "content": "[BOS]",
      "single_word": false,
      "lstrip": false,
      "rstrip": false,
      "normalized": false,
      "special": true
    },
    {
      "id": 3,
      "content": "[EOS]",
      "single_word": false,
      "lstrip": false,
      "rstrip": false,
      "normalized": false,
      "special": true
    }
  ],
  "normalizer": null,
  "pre_tokenizer": {
    "type": "Whitespace"
  },
  "post_processor": {
    "type": "TemplateProcessing",
    "single": [
      {
        "SpecialToken": {
          "id": "[BOS]",
          "type_id": 0
        }
      },
      {
        "Sequence": {
          "id": "A",
          "type_id": 0
        }
      },
      {
        "SpecialToken": {
          "id": "[EOS]",
          "type_id": 0
        }
      }
    ],
    "pair": [
      {
        "SpecialToken": {
          "id": "[BOS]",
          "type_id": 0
        }
      },
      {
        "Sequence": {
          "id": "A",
          "type_id": 0
        }
      },
      {
        "SpecialToken": {
          "id": "[EOS]",
          "type_id": 0
        }
      },
      {
        "SpecialToken": {
          "id": "[BOS]",
          "type_id": 0
        }
      },
      {
        "Sequence": {
          "id": "B",
          "type_id": 1
        }
      },
      {
        "SpecialToken": {
          "id": "[EOS]",
          "type_id": 1
        }
      }
    ],
    "special_tokens": {
      "[BOS]": {
        "id": "[BOS]",
        "ids": [
          2
        ],
        "tokens": [
          "[BOS]"
        ]
      },
      "[EOS]": {
        "id": "[EOS]",
        "ids": [
          3
        ],
        "tokens": [
          "[EOS]"
        ]
      }
    }
  },
  "decoder": null,
  "model": {
    "type": "BPE",
    "dropout": null,
    "unk_token": "[UNK]",
    "continuing_subword_prefix": null,
    "end_of_word_suffix": null,
    "fuse_unk": false,
    "byte_fallback": false,
    "ignore_merges": false,
    "vocab": {
      "[PAD]": 0,
      "[UNK]": 1,
      "[BOS]": 2,
      "[EOS]": 3,
      "\u0006": 4,
      "\u0018": 5,
      "!": 6,
      "\"": 7,
      "#": 8,
      "$": 9,
      "%": 10,
      "&": 11,
      "'": 12,
      "(": 13,
      ")": 14,
      "*": 15,
      "+": 16,
      ",": 17,
      "-": 18,
      ".": 19,
      "/": 20,
      "0": 21,
      "1": 22,
      "2": 23,
      "3": 24,
      "4": 25,
      "5": 26,
      "6": 27,
      "7": 28,
      "8": 29,
      "9": 30,
      ":": 31,
      ";": 32,
      "<": 33,
      "=": 34,
      ">": 35,
      "?": 36,
      "@": 37,
      "A": 38,
      "B": 39,
      "C": 40,
      "D": 41,
      "E": 42,
      "F": 43,
      "G": 44,
      "H": 45,
      "I": 46,
      "J": 47,
      "K": 48,
      "L": 49,
      "M": 50,
      "N": 51,
      "O": 52,
      "P": 53,
      "Q": 54,
      "R": 55,
      "S": 56,
      "T": 57,
      "U": 58,
      "V": 59,
      "W": 60,
      "X": 61,
      "Y": 62,
      "Z": 63,
      "[": 64,
      "\\": 65,
      "]": 66,
      "^": 67,
      "_": 68,
      "`": 69,
      "a": 70,
      "b": 71,
      "c": 72,
      "d": 73,
      "e": 74,
      "f": 75,
      "g": 76,
      "h": 77,
      "i": 78,
      "j": 79,
      "k": 80,
      "l": 81,
      "m": 82,
      "n": 83,
      "o": 84,
      "p": 85,
      "q": 86,
      "r": 87,
      "s": 88,
      "t": 89,
      "u": 90,
      "v": 91,
      "w": 92,
      "x": 93,
      "y": 94,
      "z": 95,
      "{": 96,
      "|": 97,
      "}": 98,
      "~": 99,
      "": 100,
      "¡": 101,
      "¢": 102,
      "£": 103,
      "¤": 104,
      "¥": 105,
      "¦": 106,
      "§": 107,
      "¨": 108,
      "©": 109,
      "ª": 110,
      "«": 111,
      "¬": 112,
      "­": 113,
      "®": 114,
      "°": 115,
      "±": 116,
      "²": 117,
      "³": 118,
      "´": 119,
      "µ": 120,
      "¶": 121,
      "·": 122,
      "¹": 123,
      "º": 124,
      "»": 125,
      "¼": 126,
      "½": 127,
      "¾": 128,
      "¿": 129,
      "À": 130,
      "Á": 131,
      "Â": 132,
      "Ã": 133,
      "Ä": 134,
      "Å": 135,
      "Ç": 136,
      "È": 137,
      "É": 138,
      "Ê": 139,
      "Ì": 140,
      "Í": 141,
      "Î": 142,
      "Ï": 143,
      "Ð": 144,
      "Ñ": 145,
      "Ò": 146,
      "Ó": 147,
      "Ô": 148,
      "Ö": 149,
      "×": 150,
      "Ø": 151,
      "Ú": 152,
      "Ü": 153,
      "Ý": 154,
      "Þ": 155,
      "ß": 156,
      "à": 157,
      "á": 158,
      "â": 159,
      "ã": 160,
      "ä": 161,
      "å": 162,
      "æ": 163,
      "ç": 164,
      "è": 165,
      "é": 166,
      "ê": 167,
      "ë": 168,
      "ì": 169,
      "í": 170,
      "î": 171,
      "ï": 172,
      "ð": 173,
      "ñ": 174,
      "ò": 175,
      "ó": 176,
      "ô": 177,
      "õ": 178,
      "ö": 179,
      "÷": 180,
      "ø": 181,
      "ù": 182,
      "ú": 183,
      "û": 184,
      "ü": 185,
      "ý": 186,
      "þ": 187,
      "ÿ": 188,
      "ā": 189,
      "ă": 190,
      "ą": 191,
      "ć": 192,
      "ċ": 193,
      "Č": 194,
      "č": 195,
      "Đ": 196,
      "đ": 197,
      "ē": 198,
      "ė": 199,
      "ę": 200,
      "ě": 201,
      "ğ": 202,
      "ģ": 203,
      "ħ": 204,
      "ĩ": 205,
      "ī": 206,
      "ĭ": 207,
      "İ": 208,
      "ı": 209,
      "ļ": 210,
      "ŀ": 211,
      "Ł": 212,
      "ł": 213,
      "ń": 214,
      "Ō": 215,
      "ō": 216,
      "ŏ": 217,
      "ő": 218,
      "œ": 219,
      "ř": 220,
      "Ś": 221,
      "ś": 222,
      "Ş": 223,
      "ş": 224,
      "Š": 225,
      "š": 226,
      "Ť": 227,
      "ũ": 228,
      "ū": 229,
      "ŭ": 230,
      "ů": 231,
      "ű": 232,
      "Ź": 233,
      "ź": 234,
      "Ż": 235,
      "ż": 236,
      "Ž": 237,
      "ơ": 238,
      "ư": 239,
      "ǎ": 240,
      "ǐ": 241,
      "ǒ": 242,
      "ǔ": 243,
      "ȃ": 244,
      "Ș": 245,
      "ț": 246,
      "ɐ": 247,
      "ɑ": 248,
      "ɔ": 249,
      "ə": 250,
      "ɛ": 251,
      "ɟ": 252,
      "ɡ": 253,
      "ɦ": 254,
      "ɪ": 255,
      "ɾ": 256,
      "ʁ": 257,
      "ʃ": 258,
      "ʊ": 259,
      "ʒ": 260,
      "ʕ": 261,
      "ʰ": 262,
      "ʼ": 263,
      "ʿ": 264,
      "ˆ": 265,
      "ˈ": 266,
      "ˋ": 267,
      "ː": 268,
      "˚": 269,
      "̀": 270,
      "́": 271,
      "̂": 272,
      "̃": 273,
      "̄": 274,
      "̅": 275,
      "̆": 276,
      "̇": 277,
      "̈": 278,
      "̉": 279,
      "̊": 280,
      "̋": 281,
      "̌": 282,
      "̍": 283,
      "̎": 284,
      "̏": 285,
      "̐": 286,
      "̑": 287,
      "̒": 288,
      "̓": 289,
      "̔": 290,
      "̕": 291,
      "̖": 292,
      "̗": 293,
      "̘": 294,
      "̙": 295,
      "̚": 296,
      "̛": 297,
      "̜": 298,
      "̝": 299,
      "̞": 300,
      "̟": 301,
      "̠": 302,
      "̡": 303,
      "̢": 304,
      "̣": 305,
      "̤": 306,
      "̥": 307,
      "̦": 308,
      "̧": 309,
      "̨": 310,
      "̩": 311,
      "̪": 312,
      "̫": 313,
      "̬": 314,
      "̭": 315,
      "̮": 316,
      "̯": 317,
      "̰": 318,
      "̱": 319,
      "̲": 320,
      "̳": 321,
      "̴": 322,
      "̵": 323,
      "̶": 324,
      "̷": 325,
      "̸": 326,
      "̹": 327,
      "̺": 328,
      "̻": 329,
      "̼": 330,
      "̽": 331,
      "̾": 332,
      "̿": 333,
      "̀": 334,
      "́": 335,
      "͂": 336,
      "̓": 337,
      "̈́": 338,
      "ͅ": 339,
      "͆": 340,
      "͇": 341,
      "͈": 342,
      "͉": 343,
      "͊": 344,
      "͋": 345,
      "͌": 346,
      "͍": 347,
      "͎": 348,
      "͏": 349,
      "͐": 350,
      "͑": 351,
      "͒": 352,
      "͓": 353,
      "͔": 354,
      "͕": 355,
      "͖": 356,
      "͗": 357,
      "͘": 358,
      "͙": 359,
      "͚": 360,
      "͛": 361,
      "͜": 362,
      "͝": 363,
      "͞": 364,
      "͟": 365,
      "͠": 366,
      "͡": 367,
      "͢": 368,
      "ͣ": 369,
      "ͤ": 370,
      "ͥ": 371,
      "ͦ": 372,
      "ͧ": 373,
      "ͨ": 374,
      "ͩ": 375,
      "ͪ": 376,
      "ͫ": 377,
      "ͬ": 378,
      "ͭ": 379,
      "ͮ": 380,
      "ͯ": 381,
      "Έ": 382,
      "Ό": 383,
      "Α": 384,
      "Β": 385,
      "Δ": 386,
      "Ε": 387,
      "Θ": 388,
      "Ι": 389,
      "Κ": 390,
      "Λ": 391,
      "Ν": 392,
      "Π": 393,
      "Σ": 394,
      "Τ": 395,
      "Φ": 396,
      "Ω": 397,
      "ά": 398,
      "έ": 399,
      "ή": 400,
      "ί": 401,
      "α": 402,
      "β": 403,
      "γ": 404,
      "δ": 405,
      "ε": 406,
      "ζ": 407,
      "η": 408,
      "θ": 409,
      "ι": 410,
      "κ": 411,
      "λ": 412,
      "μ": 413,
      "ν": 414,
      "ξ": 415,
      "ο": 416,
      "π": 417,
      "ρ": 418,
      "ς": 419,
      "σ": 420,
      "τ": 421,
      "υ": 422,
      "φ": 423,
      "χ": 424,
      "ω": 425,
      "ό": 426,
      "ύ": 427,
      "ώ": 428,
      "ϕ": 429,
      "Ё": 430,
      "Є": 431,
      "І": 432,
      "Ї": 433,
      "А": 434,
      "Б": 435,
      "В": 436,
      "Г": 437,
      "Д": 438,
      "Е": 439,
      "Ж": 440,
      "З": 441,
      "И": 442,
      "Й": 443,
      "К": 444,
      "Л": 445,
      "М": 446,
      "Н": 447,
      "О": 448,
      "П": 449,
      "Р": 450,
      "С": 451,
      "Т": 452,
      "У": 453,
      "Ф": 454,
      "Х": 455,
      "Ц": 456,
      "Ч": 457,
      "Ш": 458,
      "Щ": 459,
      "Ы": 460,
      "Ь": 461,
      "Э": 462,
      "Ю": 463,
      "Я": 464,
      "а": 465,
      "б": 466,
      "в": 467,
      "г": 468,
      "д": 469,
      "е": 470,
      "ж": 471,
      "з": 472,
      "и": 473,
      "й": 474,
      "к": 475,
      "л": 476,
      "м": 477,
      "н": 478,
      "о": 479,
      "п": 480,
      "р": 481,
      "с": 482,
      "т": 483,
      "у": 484,
      "ф": 485,
      "х": 486,
      "ц": 487,
      "ч": 488,
      "ш": 489,
      "щ": 490,
      "ъ": 491,
      "ы": 492,
      "ь": 493,
      "э": 494,
      "ю": 495,
      "я": 496,
      "ё": 497,
      "є": 498,
      "і": 499,
      "ї": 500,
      "ѣ": 501,
      "҉": 502,
      "Ґ": 503,
      "ґ": 504,
      "ғ": 505,
      "֑": 506,
      "֖": 507,
      "֗": 508,
      "֙": 509,
      "֣": 510,
      "֥": 511,
      "ְ": 512,
      "ֱ": 513,
      "ִ": 514,
      "ֵ": 515,
      "ֶ": 516,
      "ַ": 517,
      "ָ": 518,
      "ֹ": 519,
      "ּ": 520,
      "ֽ": 521,
      "ׁ": 522,
      "׃": 523,
      "א": 524,
      "ב": 525,
      "ג": 526,
      "ד": 527,
      "ה": 528,
      "ו": 529,
      "ז": 530,
      "ח": 531,
      "י": 532,
      "ך": 533,
      "כ": 534,
      "ל": 535,
      "ם": 536,
      "מ": 537,
      "ן": 538,
      "נ": 539,
      "ס": 540,
      "ע": 541,
      "ף": 542,
      "פ": 543,
      "ץ": 544,
      "צ": 545,
      "ק": 546,
      "ר": 547,
      "ש": 548,
      "ת": 549,
      "،": 550,
      "؟": 551,
      "ء": 552,
      "آ": 553,
      "أ": 554,
      "ؤ": 555,
      "إ": 556,
      "ئ": 557,
      "ا": 558,
      "ب": 559,
      "ة": 560,
      "ت": 561,
      "ث": 562,
      "ج": 563,
      "ح": 564,
      "خ": 565,
      "د": 566,
      "ذ": 567,
      "ر": 568,
      "ز": 569,
      "س": 570,
      "ش": 571,
      "ص": 572,
      "ض": 573,
      "ط": 574,
      "ظ": 575,
      "ع": 576,
      "غ": 577,
      "ـ": 578,
      "ف": 579,
      "ق": 580,
      "ك": 581,
      "ل": 582,
      "م": 583,
      "ن": 584,
      "ه": 585,
      "و": 586,
      "ى": 587,
      "ي": 588,
      "ً": 589,
      "ٌ": 590,
      "ٍ": 591,
      "َ": 592,
      "ُ": 593,
      "ِ": 594,
      "ّ": 595,
      "ْ": 596,
      "١": 597,
      "٢": 598,
      "ٰ": 599,
      "پ": 600,
      "چ": 601,
      "ک": 602,
      "ی": 603,
      "அ": 604,
      "ஆ": 605,
      "இ": 606,
      "உ": 607,
      "எ": 608,
      "ஒ": 609,
      "க": 610,
      "ங": 611,
      "ச": 612,
      "ட": 613,
      "த": 614,
      "ந": 615,
      "ன": 616,
      "ப": 617,
      "ம": 618,
      "ய": 619,
      "ர": 620,
      "ள": 621,
      "ழ": 622,
      "வ": 623,
      "ா": 624,
      "ி": 625,
      "ு": 626,
      "ே": 627,
      "ை": 628,
      "ொ": 629,
      "்": 630,
      "ඞ": 631,
      "ก": 632,
      "ข": 633,
      "ค": 634,
      "ฅ": 635,
      "ฆ": 636,
      "ง": 637,
      "จ": 638,
      "ฉ": 639,
      "ช": 640,
      "ซ": 641,
      "ญ": 642,
      "ฎ": 643,
      "ฏ": 644,
      "ฐ": 645,
      "ฑ": 646,
      "ฒ": 647,
      "ณ": 648,
      "ด": 649,
      "ต": 650,
      "ถ": 651,
      "ท": 652,
      "ธ": 653,
      "น": 654,
      "บ": 655,
      "ป": 656,
      "ผ": 657,
      "ฝ": 658,
      "พ": 659,
      "ฟ": 660,
      "ภ": 661,
      "ม": 662,
      "ย": 663,
      "ร": 664,
      "ฤ": 665,
      "ล": 666,
      "ว": 667,
      "ศ": 668,
      "ษ": 669,
      "ส": 670,
      "ห": 671,
      "ฬ": 672,
      "อ": 673,
      "ฮ": 674,
      "ฯ": 675,
      "ะ": 676,
      "ั": 677,
      "า": 678,
      "ำ": 679,
      "ิ": 680,
      "ี": 681,
      "ึ": 682,
      "ื": 683,
      "ุ": 684,
      "ู": 685,
      "เ": 686,
      "แ": 687,
      "โ": 688,
      "ใ": 689,
      "ไ": 690,
      "ๆ": 691,
      "็": 692,
      "่": 693,
      "้": 694,
      "๊": 695,
      "๋": 696,
      "์": 697,
      "Ꭿ": 698,
      "ក": 699,
      "ជ": 700,
      "ត": 701,
      "ធ": 702,
      "ប": 703,
      "ព": 704,
      "ម": 705,
      "យ": 706,
      "រ": 707,
      "ា": 708,
      "ិ": 709,
      "ុ": 710,
      "េ": 711,
      "្": 712,
      "ᲆ": 713,
      "ᴗ": 714,
      "ᵉ": 715,
      "ḗ": 716,
      "ṇ": 717,
      "ṣ": 718,
      "ạ": 719,
      "Ả": 720,
      "ả": 721,
      "Ấ": 722,
      "ấ": 723,
      "ầ": 724,
      "ẩ": 725,
      "ẫ": 726,
      "ậ": 727,
      "ắ": 728,
      "ằ": 729,
      "ẳ": 730,
      "ẵ": 731,
      "ặ": 732,
      "ẹ": 733,
      "ẻ": 734,
      "ẽ": 735,
      "ế": 736,
      "ề": 737,
      "ể": 738,
      "ễ": 739,
      "ệ": 740,
      "ỉ": 741,
      "ị": 742,
      "Ọ": 743,
      "ọ": 744,
      "ỏ": 745,
      "ố": 746,
      "ồ": 747,
      "ổ": 748,
      "ỗ": 749,
      "ộ": 750,
      "ớ": 751,
      "ờ": 752,
      "Ở": 753,
      "ở": 754,
      "ỡ": 755,
      "ợ": 756,
      "ụ": 757,
      "ủ": 758,
      "ứ": 759,
      "ừ": 760,
      "ử": 761,
      "ữ": 762,
      "ự": 763,
      "ỳ": 764,
      "ỷ": 765,
      "ỹ": 766,
      "ἐ": 767,
      "ἱ": 768,
      "Ἱ": 769,
      "ί": 770,
      "ό": 771,
      "​": 772,
      "‌": 773,
      "‍": 774,
      "‐": 775,
      "‑": 776,
      "‒": 777,
      "–": 778,
      "—": 779,
      "―": 780,
      "‖": 781,
      "‘": 782,
      "’": 783,
      "‚": 784,
      "“": 785,
      "”": 786,
      "„": 787,
      "‟": 788,
      "†": 789,
      "•": 790,
      "…": 791,
      "‰": 792,
      "′": 793,
      "″": 794,
      "‵": 795,
      "›": 796,
      "‼": 797,
      "‿": 798,
      "⁄": 799,
      "⁉": 800,
      "⁢": 801,
      "⁰": 802,
      "⁴": 803,
      "⁵": 804,
      "⁶": 805,
      "⁷": 806,
      "⁸": 807,
      "⁹": 808,
      "⁺": 809,
      "⁻": 810,
      "⁽": 811,
      "⁾": 812,
      "ⁿ": 813,
      "₀": 814,
      "₁": 815,
      "₂": 816,
      "₃": 817,
      "₄": 818,
      "₆": 819,
      "₈": 820,
      "₊": 821,
      "₋": 822,
      "ₙ": 823,
      "ₛ": 824,
      "€": 825,
      "₹": 826,
      "₽": 827,
      "⃣": 828,
      "℃": 829,
      "ℏ": 830,
      "№": 831,
      "ℝ": 832,
      "™": 833,
      "ℬ": 834,
      "ℹ": 835,
      "⅓": 836,
      "⅔": 837,
      "⅛": 838,
      "←": 839,
      "→": 840,
      "↔": 841,
      "↕": 842,
      "↖": 843,
      "↗": 844,
      "↘": 845,
      "↙": 846,
      "↩": 847,
      "↪": 848,
      "↳": 849,
      "⇒": 850,
      "⇔": 851,
      "⇪": 852,
      "∀": 853,
      "∂": 854,
      "∃": 855,
      "∇": 856,
      "∈": 857,
      "∉": 858,
      "∏": 859,
      "∑": 860,
      "−": 861,
      "∗": 862,
      "√": 863,
      "∞": 864,
      "∧": 865,
      "∨": 866,
      "∩": 867,
      "∪": 868,
      "∫": 869,
      "≃": 870,
      "≈": 871,
      "≠": 872,
      "≤": 873,
      "≥": 874,
      "≦": 875,
      "⊂": 876,
      "⊆": 877,
      "⊢": 878,
      "⋅": 879,
      "⋯": 880,
      "⌈": 881,
      "⌉": 882,
      "⌊": 883,
      "⌋": 884,
      "⌚": 885,
      "⌛": 886,
      "⌨": 887,
      "〈": 888,
      "〉": 889,
      "⏏": 890,
      "⏩": 891,
      "⏪": 892,
      "⏫": 893,
      "⏬": 894,
      "⏭": 895,
      "⏮": 896,
      "⏯": 897,
      "⏰": 898,
      "⏱": 899,
      "⏲": 900,
      "⏳": 901,
      "⏸": 902,
      "⏹": 903,
      "⏺": 904,
      "⑴": 905,
      "⑵": 906,
      "⑶": 907,
      "⑷": 908,
      "⑸": 909,
      "⑹": 910,
      "Ⓜ": 911,
      "─": 912,
      "━": 913,
      "│": 914,
      "┈": 915,
      "┊": 916,
      "┐": 917,
      "└": 918,
      "┘": 919,
      "├": 920,
      "┻": 921,
      "┼": 922,
      "═": 923,
      "║": 924,
      "╓": 925,
      "╔": 926,
      "╕": 927,
      "╖": 928,
      "╗": 929,
      "╘": 930,
      "╙": 931,
      "╚": 932,
      "╜": 933,
      "╝": 934,
      "╟": 935,
      "╠": 936,
      "╢": 937,
      "╣": 938,
      "╤": 939,
      "╦": 940,
      "╧": 941,
      "╨": 942,
      "╫": 943,
      "╬": 944,
      "╮": 945,
      "╯": 946,
      "╰": 947,
      "╱": 948,
      "╲": 949,
      "▀": 950,
      "▄": 951,
      "█": 952,
      "▌": 953,
      "▐": 954,
      "░": 955,
      "▒": 956,
      "▓": 957,
      "■": 958,
      "□": 959,
      "▪": 960,
      "▫": 961,
      "▶": 962,
      "◀": 963,
      "●": 964,
      "◠": 965,
      "◡": 966,
      "◸": 967,
      "◹": 968,
      "◻": 969,
      "◼": 970,
      "◽": 971,
      "◾": 972,
      "☀": 973,
      "☁": 974,
      "☂": 975,
      "☃": 976,
      "☄": 977,
      "☆": 978,
      "☉": 979,
      "☎": 980,
      "☑": 981,
      "☔": 982,
      "☕": 983,
      "☘": 984,
      "☝": 985,
      "☠": 986,
      "☢": 987,
      "☣": 988,
      "☦": 989,
      "☪": 990,
      "☮": 991,
      "☯": 992,
      "☸": 993,
      "☹": 994,
      "☺": 995,
      "☿": 996,
      "♀": 997,
      "♂": 998,
      "♃": 999,
      "♄": 1000,
      "♅": 1001,
      "♆": 1002,
      "♈": 1003,
      "♉": 1004,
      "♊": 1005,
      "♋": 1006,
      "♌": 1007,
      "♍": 1008,
      "♎": 1009,
      "♏": 1010,
      "♐": 1011,
      "♑": 1012,
      "♒": 1013,
      "♓": 1014,
      "♔": 1015,
      "♕": 1016,
      "♖": 1017,
      "♗": 1018,
      "♘": 1019,
      "♙": 1020,
      "♚": 1021,
      "♛": 1022,
      "♜": 1023,
      "♝": 1024,
      "♞": 1025,
      "♟": 1026,
      "♠": 1027,
      "♣": 1028,
      "♥": 1029,
      "♦": 1030,
      "♨": 1031,
      "♪": 1032,
      "♭": 1033,
      "♯": 1034,
      "♻": 1035,
      "♾": 1036,
      "♿": 1037,
      "⚒": 1038,
      "⚓": 1039,
      "⚔": 1040,
      "⚕": 1041,
      "⚖": 1042,
      "⚗": 1043,
      "⚙": 1044,
      "⚛": 1045,
      "⚜": 1046,
      "⚠": 1047,
      "⚡": 1048,
      "⚧": 1049,
      "⚪": 1050,
      "⚫": 1051,
      "⚰": 1052,
      "⚱": 1053,
      "⚽": 1054,
      "⚾": 1055,
      "⛄": 1056,
      "⛅": 1057,
      "⛈": 1058,
      "⛎": 1059,
      "⛏": 1060,
      "⛑": 1061,
      "⛓": 1062,
      "⛔": 1063,
      "⛩": 1064,
      "⛪": 1065,
      "⛰": 1066,
      "⛱": 1067,
      "⛲": 1068,
      "⛳": 1069,
      "⛴": 1070,
      "⛵": 1071,
      "⛷": 1072,
      "⛸": 1073,
      "⛹": 1074,
      "⛺": 1075,
      "⛽": 1076,
      "✂": 1077,
      "✅": 1078,
      "✈": 1079,
      "✉": 1080,
      "✊": 1081,
      "✋": 1082,
      "✌": 1083,
      "✍": 1084,
      "✏": 1085,
      "✒": 1086,
      "✓": 1087,
      "✔": 1088,
      "✖": 1089,
      "✝": 1090,
      "✡": 1091,
      "✦": 1092,
      "✧": 1093,
      "✨": 1094,
      "✳": 1095,
      "✴": 1096,
      "❁": 1097,
      "❄": 1098,
      "❇": 1099,
      "❌": 1100,
      "❎": 1101,
      "❓": 1102,
      "❔": 1103,
      "❕": 1104,
      "❗": 1105,
      "❣": 1106,
      "❤": 1107,
      "❯": 1108,
      "➕": 1109,
      "➖": 1110,
      "➗": 1111,
      "➡": 1112,
      "➰": 1113,
      "➶": 1114,
      "➿": 1115,
      "⟨": 1116,
      "⟩": 1117,
      "⠀": 1118,
      "⠁": 1119,
      "⠂": 1120,
      "⠃": 1121,
      "⠄": 1122,
      "⠆": 1123,
      "⠇": 1124,
      "⠈": 1125,
      "⠉": 1126,
      "⠋": 1127,
      "⠎": 1128,
      "⠏": 1129,
      "⠐": 1130,
      "⠒": 1131,
      "⠓": 1132,
      "⠔": 1133,
      "⠖": 1134,
      "⠗": 1135,
      "⠘": 1136,
      "⠙": 1137,
      "⠚": 1138,
      "⠛": 1139,
      "⠝": 1140,
      "⠞": 1141,
      "⠟": 1142,
      "⠠": 1143,
      "⠢": 1144,
      "⠤": 1145,
      "⠥": 1146,
      "⠦": 1147,
      "⠨": 1148,
      "⠰": 1149,
      "⠲": 1150,
      "⠳": 1151,
      "⠴": 1152,
      "⠵": 1153,
      "⠶": 1154,
      "⠷": 1155,
      "⠸": 1156,
      "⠹": 1157,
      "⠺": 1158,
      "⠻": 1159,
      "⠽": 1160,
      "⠾": 1161,
      "⠿": 1162,
      "⡀": 1163,
      "⡁": 1164,
      "⡃": 1165,
      "⡄": 1166,
      "⡆": 1167,
      "⡇": 1168,
      "⡈": 1169,
      "⡉": 1170,
      "⡏": 1171,
      "⡓": 1172,
      "⡔": 1173,
      "⡗": 1174,
      "⡙": 1175,
      "⡛": 1176,
      "⡜": 1177,
      "⡞": 1178,
      "⡟": 1179,
      "⡠": 1180,
      "⡢": 1181,
      "⡤": 1182,
      "⡥": 1183,
      "⡦": 1184,
      "⡮": 1185,
      "⡯": 1186,
      "⡰": 1187,
      "⡲": 1188,
      "⡴": 1189,
      "⡶": 1190,
      "⡷": 1191,
      "⡸": 1192,
      "⡹": 1193,
      "⡻": 1194,
      "⡼": 1195,
      "⡽": 1196,
      "⡾": 1197,
      "⡿": 1198,
      "⢀": 1199,
      "⢁": 1200,
      "⢄": 1201,
      "⢆": 1202,
      "⢇": 1203,
      "⢈": 1204,
      "⢉": 1205,
      "⢏": 1206,
      "⢐": 1207,
      "⢔": 1208,
      "⢘": 1209,
      "⢙": 1210,
      "⢛": 1211,
      "⢠": 1212,
      "⢣": 1213,
      "⢤": 1214,
      "⢦": 1215,
      "⢧": 1216,
      "⢮": 1217,
      "⢯": 1218,
      "⢰": 1219,
      "⢲": 1220,
      "⢳": 1221,
      "⢶": 1222,
      "⢷": 1223,
      "⢸": 1224,
      "⢹": 1225,
      "⢻": 1226,
      "⢼": 1227,
      "⢽": 1228,
      "⢾": 1229,
      "⢿": 1230,
      "⣀": 1231,
      "⣁": 1232,
      "⣄": 1233,
      "⣆": 1234,
      "⣇": 1235,
      "⣈": 1236,
      "⣉": 1237,
      "⣋": 1238,
      "⣌": 1239,
      "⣍": 1240,
      "⣏": 1241,
      "⣒": 1242,
      "⣗": 1243,
      "⣘": 1244,
      "⣙": 1245,
      "⣛": 1246,
      "⣞": 1247,
      "⣠": 1248,
      "⣡": 1249,
      "⣣": 1250,
      "⣤": 1251,
      "⣥": 1252,
      "⣦": 1253,
      "⣧": 1254,
      "⣩": 1255,
      "⣭": 1256,
      "⣯": 1257,
      "⣰": 1258,
      "⣱": 1259,
      "⣳": 1260,
      "⣴": 1261,
      "⣵": 1262,
      "⣶": 1263,
      "⣷": 1264,
      "⣸": 1265,
      "⣹": 1266,
      "⣺": 1267,
      "⣻": 1268,
      "⣼": 1269,
      "⣽": 1270,
      "⣾": 1271,
      "⣿": 1272,
      "⤴": 1273,
      "⤵": 1274,
      "⬅": 1275,
      "⬆": 1276,
      "⬇": 1277,
      "⬛": 1278,
      "⬜": 1279,
      "⭐": 1280,
      "⭕": 1281,
      "Ɐ": 1282,
      "⼈": 1283,
      "⼝": 1284,
      "⾒": 1285,
      "、": 1286,
      "。": 1287,
      "々": 1288,
      "〇": 1289,
      "〈": 1290,
      "〉": 1291,
      "《": 1292,
      "》": 1293,
      "「": 1294,
      "」": 1295,
      "『": 1296,
      "』": 1297,
      "【": 1298,
      "】": 1299,
      "〔": 1300,
      "〕": 1301,
      "〰": 1302,
      "〽": 1303,
      "あ": 1304,
      "い": 1305,
      "う": 1306,
      "え": 1307,
      "お": 1308,
      "か": 1309,
      "が": 1310,
      "き": 1311,
      "ぎ": 1312,
      "く": 1313,
      "ぐ": 1314,
      "け": 1315,
      "げ": 1316,
      "こ": 1317,
      "ご": 1318,
      "さ": 1319,
      "ざ": 1320,
      "し": 1321,
      "じ": 1322,
      "す": 1323,
      "ず": 1324,
      "せ": 1325,
      "ぜ": 1326,
      "そ": 1327,
      "ぞ": 1328,
      "た": 1329,
      "だ": 1330,
      "ち": 1331,
      "っ": 1332,
      "つ": 1333,
      "づ": 1334,
      "て": 1335,
      "で": 1336,
      "と": 1337,
      "ど": 1338,
      "な": 1339,
      "に": 1340,
      "ぬ": 1341,
      "ね": 1342,
      "の": 1343,
      "は": 1344,
      "ば": 1345,
      "ひ": 1346,
      "び": 1347,
      "ぴ": 1348,
      "ふ": 1349,
      "ぶ": 1350,
      "へ": 1351,
      "べ": 1352,
      "ほ": 1353,
      "ぽ": 1354,
      "ま": 1355,
      "み": 1356,
      "む": 1357,
      "め": 1358,
      "も": 1359,
      "ゃ": 1360,
      "や": 1361,
      "ゅ": 1362,
      "ゆ": 1363,
      "ょ": 1364,
      "よ": 1365,
      "ら": 1366,
      "り": 1367,
      "る": 1368,
      "れ": 1369,
      "ろ": 1370,
      "わ": 1371,
      "を": 1372,
      "ん": 1373,
      "ァ": 1374,
      "ア": 1375,
      "ィ": 1376,
      "イ": 1377,
      "ウ": 1378,
      "ェ": 1379,
      "エ": 1380,
      "ォ": 1381,
      "オ": 1382,
      "カ": 1383,
      "ガ": 1384,
      "キ": 1385,
      "ギ": 1386,
      "ク": 1387,
      "グ": 1388,
      "ケ": 1389,
      "ゲ": 1390,
      "コ": 1391,
      "ゴ": 1392,
      "サ": 1393,
      "ザ": 1394,
      "シ": 1395,
      "ジ": 1396,
      "ス": 1397,
      "ズ": 1398,
      "セ": 1399,
      "ゼ": 1400,
      "ソ": 1401,
      "ゾ": 1402,
      "タ": 1403,
      "ダ": 1404,
      "チ": 1405,
      "ッ": 1406,
      "ツ": 1407,
      "テ": 1408,
      "デ": 1409,
      "ト": 1410,
      "ド": 1411,
      "ナ": 1412,
      "ニ": 1413,
      "ヌ": 1414,
      "ネ": 1415,
      "ノ": 1416,
      "ハ": 1417,
      "バ": 1418,
      "パ": 1419,
      "ヒ": 1420,
      "ビ": 1421,
      "ピ": 1422,
      "フ": 1423,
      "ブ": 1424,
      "プ": 1425,
      "ヘ": 1426,
      "ベ": 1427,
      "ペ": 1428,
      "ホ": 1429,
      "ボ": 1430,
      "ポ": 1431,
      "マ": 1432,
      "ミ": 1433,
      "ム": 1434,
      "メ": 1435,
      "モ": 1436,
      "ャ": 1437,
      "ヤ": 1438,
      "ュ": 1439,
      "ユ": 1440,
      "ョ": 1441,
      "ヨ": 1442,
      "ラ": 1443,
      "リ": 1444,
      "ル": 1445,
      "レ": 1446,
      "ロ": 1447,
      "ワ": 1448,
      "ン": 1449,
      "ヴ": 1450,
      "・": 1451,
      "ー": 1452,
      "㊗": 1453,
      "㊙": 1454,
      "㐅": 1455,
      "一": 1456,
      "丁": 1457,
      "七": 1458,
      "万": 1459,
      "丈": 1460,
      "三": 1461,
      "上": 1462,
      "下": 1463,
      "不": 1464,
      "与": 1465,
      "丐": 1466,
      "丑": 1467,
      "专": 1468,
      "且": 1469,
      "世": 1470,
      "丘": 1471,
      "丙": 1472,
      "业": 1473,
      "丛": 1474,
      "东": 1475,
      "丝": 1476,
      "両": 1477,
      "丢": 1478,
      "两": 1479,
      "严": 1480,
      "並": 1481,
      "丧": 1482,
      "个": 1483,
      "丫": 1484,
      "中": 1485,
      "丰": 1486,
      "串": 1487,
      "临": 1488,
      "丸": 1489,
      "丹": 1490,
      "为": 1491,
      "主": 1492,
      "丽": 1493,
      "举": 1494,
      "乃": 1495,
      "久": 1496,
      "么": 1497,
      "义": 1498,
      "之": 1499,
      "乌": 1500,
      "乍": 1501,
      "乎": 1502,
      "乏": 1503,
      "乐": 1504,
      "乔": 1505,
      "乗": 1506,
      "乘": 1507,
      "乙": 1508,
      "九": 1509,
      "也": 1510,
      "习": 1511,
      "乡": 1512,
      "书": 1513,
      "买": 1514,
      "乱": 1515,
      "乳": 1516,
      "乾": 1517,
      "亂": 1518,
      "了": 1519,
      "予": 1520,
      "争": 1521,
      "事": 1522,
      "二": 1523,
      "于": 1524,
      "亏": 1525,
      "云": 1526,
      "互": 1527,
      "五": 1528,
      "井": 1529,
      "亚": 1530,
      "些": 1531,
      "亜": 1532,
      "亞": 1533,
      "亡": 1534,
      "交": 1535,
      "亥": 1536,
      "亦": 1537,
      "产": 1538,
      "亨": 1539,
      "亩": 1540,
      "享": 1541,
      "京": 1542,
      "亭": 1543,
      "亮": 1544,
      "亲": 1545,
      "亶": 1546,
      "人": 1547,
      "亿": 1548,
      "什": 1549,
      "仁": 1550,
      "仄": 1551,
      "仅": 1552,
      "仆": 1553,
      "仇": 1554,
      "今": 1555,
      "介": 1556,
      "仍": 1557,
      "从": 1558,
      "仑": 1559,
      "仓": 1560,
      "仔": 1561,
      "仕": 1562,
      "他": 1563,
      "仗": 1564,
      "付": 1565,
      "仙": 1566,
      "代": 1567,
      "令": 1568,
      "以": 1569,
      "仪": 1570,
      "们": 1571,
      "仮": 1572,
      "仰": 1573,
      "仲": 1574,
      "件": 1575,
      "价": 1576,
      "任": 1577,
      "份": 1578,
      "仿": 1579,
      "企": 1580,
      "伊": 1581,
      "伍": 1582,
      "伎": 1583,
      "伏": 1584,
      "伐": 1585,
      "休": 1586,
      "众": 1587,
      "优": 1588,
      "伙": 1589,
      "会": 1590,
      "伝": 1591,
      "伟": 1592,
      "传": 1593,
      "伤": 1594,
      "伦": 1595,
      "伪": 1596,
      "伯": 1597,
      "估": 1598,
      "伴": 1599,
      "伶": 1600,
      "伸": 1601,
      "伺": 1602,
      "似": 1603,
      "伽": 1604,
      "但": 1605,
      "佇": 1606,
      "位": 1607,
      "低": 1608,
      "住": 1609,
      "佐": 1610,
      "佑": 1611,
      "体": 1612,
      "佔": 1613,
      "何": 1614,
      "余": 1615,
      "佛": 1616,
      "作": 1617,
      "你": 1618,
      "佣": 1619,
      "佩": 1620,
      "佬": 1621,
      "佳": 1622,
      "併": 1623,
      "佻": 1624,
      "佼": 1625,
      "使": 1626,
      "來": 1627,
      "例": 1628,
      "侏": 1629,
      "侗": 1630,
      "供": 1631,
      "依": 1632,
      "侠": 1633,
      "価": 1634,
      "侣": 1635,
      "侦": 1636,
      "侧": 1637,
      "侨": 1638,
      "侮": 1639,
      "侯": 1640,
      "侵": 1641,
      "便": 1642,
      "係": 1643,
      "促": 1644,
      "俄": 1645,
      "俊": 1646,
      "俏": 1647,
      "俐": 1648,
      "俑": 1649,
      "俗": 1650,
      "俘": 1651,
      "俚": 1652,
      "保": 1653,
      "俠": 1654,
      "信": 1655,
      "俩": 1656,
      "修": 1657,
      "俯": 1658,
      "俱": 1659,
      "倆": 1660,
      "倉": 1661,
      "個": 1662,
      "倍": 1663,
      "們": 1664,
      "倒": 1665,
      "倘": 1666,
      "候": 1667,
      "倚": 1668,
      "借": 1669,
      "倡": 1670,
      "倣": 1671,
      "値": 1672,
      "倦": 1673,
      "倫": 1674,
      "债": 1675,
      "值": 1676,
      "倾": 1677,
      "假": 1678,
      "偎": 1679,
      "偏": 1680,
      "做": 1681,
      "停": 1682,
      "健": 1683,
      "偲": 1684,
      "側": 1685,
      "偶": 1686,
      "偷": 1687,
      "偿": 1688,
      "傀": 1689,
      "傅": 1690,
      "傍": 1691,
      "傑": 1692,
      "傘": 1693,
      "備": 1694,
      "傣": 1695,
      "储": 1696,
      "催": 1697,
      "傲": 1698,
      "傳": 1699,
      "債": 1700,
      "傷": 1701,
      "傻": 1702,
      "傾": 1703,
      "僅": 1704,
      "働": 1705,
      "像": 1706,
      "僕": 1707,
      "僖": 1708,
      "僚": 1709,
      "僧": 1710,
      "僱": 1711,
      "價": 1712,
      "儀": 1713,
      "億": 1714,
      "儇": 1715,
      "儒": 1716,
      "儘": 1717,
      "償": 1718,
      "儡": 1719,
      "優": 1720,
      "儲": 1721,
      "儿": 1722,
      "兀": 1723,
      "允": 1724,
      "元": 1725,
      "兄": 1726,
      "充": 1727,
      "兆": 1728,
      "先": 1729,
      "光": 1730,
      "克": 1731,
      "免": 1732,
      "兒": 1733,
      "兔": 1734,
      "党": 1735,
      "入": 1736,
      "內": 1737,
      "全": 1738,
      "兩": 1739,
      "八": 1740,
      "公": 1741,
      "六": 1742,
      "兰": 1743,
      "共": 1744,
      "关": 1745,
      "兴": 1746,
      "兵": 1747,
      "其": 1748,
      "具": 1749,
      "典": 1750,
      "兹": 1751,
      "养": 1752,
      "兼": 1753,
      "兽": 1754,
      "内": 1755,
      "円": 1756,
      "冈": 1757,
      "冊": 1758,
      "册": 1759,
      "再": 1760,
      "冒": 1761,
      "冗": 1762,
      "写": 1763,
      "军": 1764,
      "农": 1765,
      "冠": 1766,
      "冢": 1767,
      "冤": 1768,
      "冥": 1769,
      "冨": 1770,
      "冪": 1771,
      "冬": 1772,
      "冰": 1773,
      "冲": 1774,
      "决": 1775,
      "况": 1776,
      "冶": 1777,
      "冷": 1778,
      "冻": 1779,
      "净": 1780,
      "凄": 1781,
      "准": 1782,
      "凇": 1783,
      "凉": 1784,
      "凌": 1785,
      "凍": 1786,
      "减": 1787,
      "凑": 1788,
      "凛": 1789,
      "凝": 1790,
      "几": 1791,
      "凡": 1792,
      "凤": 1793,
      "処": 1794,
      "凪": 1795,
      "凭": 1796,
      "凯": 1797,
      "凳": 1798,
      "凶": 1799,
      "凸": 1800,
      "凹": 1801,
      "出": 1802,
      "击": 1803,
      "函": 1804,
      "凿": 1805,
      "刀": 1806,
      "刃": 1807,
      "分": 1808,
      "切": 1809,
      "刊": 1810,
      "刑": 1811,
      "划": 1812,
      "列": 1813,
      "刘": 1814,
      "则": 1815,
      "刚": 1816,
      "创": 1817,
      "初": 1818,
      "删": 1819,
      "判": 1820,
      "別": 1821,
      "利": 1822,
      "刪": 1823,
      "别": 1824,
      "到": 1825,
      "制": 1826,
      "刷": 1827,
      "券": 1828,
      "刹": 1829,
      "刺": 1830,
      "刻": 1831,
      "剂": 1832,
      "剃": 1833,
      "則": 1834,
      "削": 1835,
      "剌": 1836,
      "前": 1837,
      "剑": 1838,
      "剔": 1839,
      "剛": 1840,
      "剤": 1841,
      "剥": 1842,
      "剧": 1843,
      "剩": 1844,
      "剪": 1845,
      "副": 1846,
      "割": 1847,
      "創": 1848,
      "剽": 1849,
      "劃": 1850,
      "劄": 1851,
      "劇": 1852,
      "劑": 1853,
      "力": 1854,
      "劝": 1855,
      "办": 1856,
      "功": 1857,
      "加": 1858,
      "务": 1859,
      "劣": 1860,
      "动": 1861,
      "助": 1862,
      "努": 1863,
      "劫": 1864,
      "励": 1865,
      "劲": 1866,
      "劳": 1867,
      "労": 1868,
      "効": 1869,
      "势": 1870,
      "勁": 1871,
      "勃": 1872,
      "勇": 1873,
      "勉": 1874,
      "勋": 1875,
      "勒": 1876,
      "動": 1877,
      "勘": 1878,
      "務": 1879,
      "勝": 1880,
      "勞": 1881,
      "募": 1882,
      "勢": 1883,
      "勤": 1884,
      "勧": 1885,
      "勵": 1886,
      "勸": 1887,
      "勺": 1888,
      "勾": 1889,
      "勿": 1890,
      "匀": 1891,
      "包": 1892,
      "匆": 1893,
      "匈": 1894,
      "匕": 1895,
      "化": 1896,
      "北": 1897,
      "匙": 1898,
      "匠": 1899,
      "匪": 1900,
      "匮": 1901,
      "匹": 1902,
      "区": 1903,
      "医": 1904,
      "匾": 1905,
      "匿": 1906,
      "區": 1907,
      "十": 1908,
      "千": 1909,
      "升": 1910,
      "午": 1911,
      "卉": 1912,
      "半": 1913,
      "华": 1914,
      "协": 1915,
      "卑": 1916,
      "卒": 1917,
      "卓": 1918,
      "協": 1919,
      "单": 1920,
      "卖": 1921,
      "南": 1922,
      "単": 1923,
      "博": 1924,
      "卜": 1925,
      "占": 1926,
      "卡": 1927,
      "卢": 1928,
      "卤": 1929,
      "卧": 1930,
      "卫": 1931,
      "卯": 1932,
      "印": 1933,
      "危": 1934,
      "即": 1935,
      "却": 1936,
      "卵": 1937,
      "卷": 1938,
      "卸": 1939,
      "卻": 1940,
      "卿": 1941,
      "厂": 1942,
      "厄": 1943,
      "厅": 1944,
      "历": 1945,
      "厉": 1946,
      "压": 1947,
      "厌": 1948,
      "厕": 1949,
      "厘": 1950,
      "厚": 1951,
      "原": 1952,
      "厢": 1953,
      "厥": 1954,
      "厦": 1955,
      "厨": 1956,
      "厮": 1957,
      "厳": 1958,
      "去": 1959,
      "县": 1960,
      "参": 1961,
      "參": 1962,
      "又": 1963,
      "叉": 1964,
      "及": 1965,
      "友": 1966,
      "双": 1967,
      "反": 1968,
      "収": 1969,
      "发": 1970,
      "叔": 1971,
      "取": 1972,
      "受": 1973,
      "变": 1974,
      "叙": 1975,
      "叛": 1976,
      "叠": 1977,
      "口": 1978,
      "古": 1979,
      "句": 1980,
      "另": 1981,
      "叩": 1982,
      "只": 1983,
      "叫": 1984,
      "召": 1985,
      "叮": 1986,
      "可": 1987,
      "台": 1988,
      "史": 1989,
      "右": 1990,
      "叶": 1991,
      "号": 1992,
      "司": 1993,
      "叹": 1994,
      "叽": 1995,
      "吃": 1996,
      "各": 1997,
      "合": 1998,
      "吉": 1999,
      "吊": 2000,
      "同": 2001,
      "名": 2002,
      "后": 2003,
      "吐": 2004,
      "向": 2005,
      "吓": 2006,
      "吕": 2007,
      "吗": 2008,
      "君": 2009,
      "吝": 2010,
      "吞": 2011,
      "吟": 2012,
      "吠": 2013,
      "否": 2014,
      "吧": 2015,
      "吨": 2016,
      "含": 2017,
      "听": 2018,
      "启": 2019,
      "吴": 2020,
      "吵": 2021,
      "吸": 2022,
      "吹": 2023,
      "吻": 2024,
      "吾": 2025,
      "呀": 2026,
      "呂": 2027,
      "呆": 2028,
      "呈": 2029,
      "告": 2030,
      "呕": 2031,
      "员": 2032,
      "呢": 2033,
      "周": 2034,
      "味": 2035,
      "呼": 2036,
      "命": 2037,
      "咋": 2038,
      "和": 2039,
      "咏": 2040,
      "咒": 2041,
      "咕": 2042,
      "咖": 2043,
      "咙": 2044,
      "咨": 2045,
      "咬": 2046,
      "咯": 2047,
      "咳": 2048,
      "咸": 2049,
      "咽": 2050,
      "哀": 2051,
      "品": 2052,
      "哄": 2053,
      "哇": 2054,
      "哈": 2055,
      "哉": 2056,
      "响": 2057,
      "哔": 2058,
      "哗": 2059,
      "員": 2060,
      "哥": 2061,
      "哦": 2062,
      "哨": 2063,
      "哩": 2064,
      "哪": 2065,
      "哭": 2066,
      "哮": 2067,
      "哲": 2068,
      "哺": 2069,
      "唆": 2070,
      "唇": 2071,
      "唉": 2072,
      "唐": 2073,
      "唑": 2074,
      "唢": 2075,
      "唤": 2076,
      "售": 2077,
      "唯": 2078,
      "唱": 2079,
      "啃": 2080,
      "商": 2081,
      "啊": 2082,
      "問": 2083,
      "啟": 2084,
      "啡": 2085,
      "啤": 2086,
      "啥": 2087,
      "啦": 2088,
      "啬": 2089,
      "啸": 2090,
      "啼": 2091,
      "喂": 2092,
      "喃": 2093,
      "善": 2094,
      "喇": 2095,
      "喉": 2096,
      "喋": 2097,
      "喔": 2098,
      "喘": 2099,
      "喜": 2100,
      "喝": 2101,
      "喧": 2102,
      "喩": 2103,
      "喪": 2104,
      "單": 2105,
      "喰": 2106,
      "喷": 2107,
      "喻": 2108,
      "喽": 2109,
      "嗅": 2110,
      "嗎": 2111,
      "嗜": 2112,
      "嗨": 2113,
      "嗯": 2114,
      "嗽": 2115,
      "嘆": 2116,
      "嘉": 2117,
      "嘎": 2118,
      "嘖": 2119,
      "嘗": 2120,
      "嘘": 2121,
      "嘚": 2122,
      "嘛": 2123,
      "嘱": 2124,
      "嘲": 2125,
      "嘴": 2126,
      "嘻": 2127,
      "嘿": 2128,
      "噌": 2129,
      "噓": 2130,
      "噢": 2131,
      "器": 2132,
      "噪": 2133,
      "噬": 2134,
      "嚐": 2135,
      "嚴": 2136,
      "嚼": 2137,
      "囊": 2138,
      "囚": 2139,
      "四": 2140,
      "回": 2141,
      "因": 2142,
      "团": 2143,
      "団": 2144,
      "囤": 2145,
      "园": 2146,
      "困": 2147,
      "囱": 2148,
      "囲": 2149,
      "図": 2150,
      "围": 2151,
      "固": 2152,
      "国": 2153,
      "图": 2154,
      "圆": 2155,
      "圈": 2156,
      "國": 2157,
      "圍": 2158,
      "圏": 2159,
      "園": 2160,
      "圓": 2161,
      "圖": 2162,
      "團": 2163,
      "土": 2164,
      "圣": 2165,
      "圧": 2166,
      "在": 2167,
      "地": 2168,
      "圳": 2169,
      "场": 2170,
      "圻": 2171,
      "圾": 2172,
      "址": 2173,
      "均": 2174,
      "坊": 2175,
      "坎": 2176,
      "坏": 2177,
      "坐": 2178,
      "坑": 2179,
      "块": 2180,
      "坚": 2181,
      "坛": 2182,
      "坞": 2183,
      "坠": 2184,
      "坡": 2185,
      "坦": 2186,
      "坨": 2187,
      "垂": 2188,
      "垃": 2189,
      "型": 2190,
      "垒": 2191,
      "垠": 2192,
      "垢": 2193,
      "垦": 2194,
      "垫": 2195,
      "垮": 2196,
      "埃": 2197,
      "埋": 2198,
      "城": 2199,
      "域": 2200,
      "執": 2201,
      "培": 2202,
      "基": 2203,
      "堂": 2204,
      "堅": 2205,
      "堆": 2206,
      "堡": 2207,
      "堤": 2208,
      "堪": 2209,
      "堰": 2210,
      "報": 2211,
      "場": 2212,
      "堵": 2213,
      "塊": 2214,
      "塌": 2215,
      "塑": 2216,
      "塔": 2217,
      "塗": 2218,
      "塘": 2219,
      "塞": 2220,
      "填": 2221,
      "境": 2222,
      "墓": 2223,
      "増": 2224,
      "墙": 2225,
      "增": 2226,
      "墟": 2227,
      "墨": 2228,
      "墮": 2229,
      "壁": 2230,
      "壓": 2231,
      "壞": 2232,
      "壤": 2233,
      "士": 2234,
      "壮": 2235,
      "壯": 2236,
      "声": 2237,
      "売": 2238,
      "壳": 2239,
      "壶": 2240,
      "处": 2241,
      "备": 2242,
      "変": 2243,
      "复": 2244,
      "夏": 2245,
      "夔": 2246,
      "夕": 2247,
      "外": 2248,
      "多": 2249,
      "夜": 2250,
      "够": 2251,
      "夠": 2252,
      "夢": 2253,
      "大": 2254,
      "天": 2255,
      "太": 2256,
      "夫": 2257,
      "央": 2258,
      "夯": 2259,
      "失": 2260,
      "头": 2261,
      "夸": 2262,
      "夹": 2263,
      "夺": 2264,
      "夾": 2265,
      "奂": 2266,
      "奇": 2267,
      "奈": 2268,
      "奉": 2269,
      "奋": 2270,
      "奏": 2271,
      "契": 2272,
      "奔": 2273,
      "奖": 2274,
      "套": 2275,
      "奠": 2276,
      "奥": 2277,
      "女": 2278,
      "奶": 2279,
      "奸": 2280,
      "她": 2281,
      "好": 2282,
      "如": 2283,
      "妃": 2284,
      "妄": 2285,
      "妆": 2286,
      "妇": 2287,
      "妈": 2288,
      "妊": 2289,
      "妍": 2290,
      "妒": 2291,
      "妓": 2292,
      "妖": 2293,
      "妙": 2294,
      "妥": 2295,
      "妨": 2296,
      "妮": 2297,
      "妹": 2298,
      "妻": 2299,
      "姆": 2300,
      "始": 2301,
      "姐": 2302,
      "姑": 2303,
      "姓": 2304,
      "委": 2305,
      "姜": 2306,
      "姥": 2307,
      "姬": 2308,
      "姮": 2309,
      "姻": 2310,
      "姿": 2311,
      "威": 2312,
      "娃": 2313,
      "娅": 2314,
      "娇": 2315,
      "娘": 2316,
      "娛": 2317,
      "娜": 2318,
      "娥": 2319,
      "娱": 2320,
      "娴": 2321,
      "娼": 2322,
      "婆": 2323,
      "婉": 2324,
      "婚": 2325,
      "婦": 2326,
      "婪": 2327,
      "婴": 2328,
      "媒": 2329,
      "媚": 2330,
      "媲": 2331,
      "媳": 2332,
      "媽": 2333,
      "嫁": 2334,
      "嫉": 2335,
      "嫌": 2336,
      "嫖": 2337,
      "嫣": 2338,
      "嫩": 2339,
      "嬉": 2340,
      "嬸": 2341,
      "孀": 2342,
      "子": 2343,
      "孔": 2344,
      "孕": 2345,
      "字": 2346,
      "存": 2347,
      "孙": 2348,
      "孜": 2349,
      "孝": 2350,
      "孟": 2351,
      "孢": 2352,
      "季": 2353,
      "孤": 2354,
      "学": 2355,
      "孩": 2356,
      "孫": 2357,
      "孱": 2358,
      "孵": 2359,
      "學": 2360,
      "宁": 2361,
      "它": 2362,
      "宅": 2363,
      "宇": 2364,
      "守": 2365,
      "安": 2366,
      "宋": 2367,
      "完": 2368,
      "宏": 2369,
      "宕": 2370,
      "宗": 2371,
      "官": 2372,
      "宙": 2373,
      "定": 2374,
      "宛": 2375,
      "宜": 2376,
      "宝": 2377,
      "实": 2378,
      "実": 2379,
      "宠": 2380,
      "审": 2381,
      "客": 2382,
      "宣": 2383,
      "室": 2384,
      "宪": 2385,
      "宫": 2386,
      "宮": 2387,
      "宰": 2388,
      "害": 2389,
      "宴": 2390,
      "宵": 2391,
      "家": 2392,
      "容": 2393,
      "宽": 2394,
      "宾": 2395,
      "宿": 2396,
      "寂": 2397,
      "寄": 2398,
      "寅": 2399,
      "密": 2400,
      "富": 2401,
      "寒": 2402,
      "寓": 2403,
      "寝": 2404,
      "寞": 2405,
      "察": 2406,
      "寡": 2407,
      "寢": 2408,
      "實": 2409,
      "寧": 2410,
      "寨": 2411,
      "審": 2412,
      "寫": 2413,
      "寬": 2414,
      "寰": 2415,
      "寶": 2416,
      "寸": 2417,
      "对": 2418,
      "寺": 2419,
      "寻": 2420,
      "导": 2421,
      "対": 2422,
      "寿": 2423,
      "封": 2424,
      "専": 2425,
      "射": 2426,
      "将": 2427,
      "將": 2428,
      "專": 2429,
      "尉": 2430,
      "尊": 2431,
      "尋": 2432,
      "對": 2433,
      "導": 2434,
      "小": 2435,
      "少": 2436,
      "尔": 2437,
      "尖": 2438,
      "尘": 2439,
      "尚": 2440,
      "尝": 2441,
      "尤": 2442,
      "尬": 2443,
      "就": 2444,
      "尴": 2445,
      "尺": 2446,
      "尼": 2447,
      "尽": 2448,
      "尾": 2449,
      "尿": 2450,
      "局": 2451,
      "屁": 2452,
      "层": 2453,
      "屄": 2454,
      "居": 2455,
      "屆": 2456,
      "屈": 2457,
      "屉": 2458,
      "届": 2459,
      "屋": 2460,
      "屌": 2461,
      "屎": 2462,
      "屏": 2463,
      "屑": 2464,
      "展": 2465,
      "属": 2466,
      "屠": 2467,
      "層": 2468,
      "履": 2469,
      "屦": 2470,
      "屬": 2471,
      "屯": 2472,
      "山": 2473,
      "屿": 2474,
      "岁": 2475,
      "岂": 2476,
      "岑": 2477,
      "岗": 2478,
      "岛": 2479,
      "岡": 2480,
      "岩": 2481,
      "岭": 2482,
      "岱": 2483,
      "岳": 2484,
      "岷": 2485,
      "岸": 2486,
      "峙": 2487,
      "峡": 2488,
      "峦": 2489,
      "峨": 2490,
      "峭": 2491,
      "峰": 2492,
      "島": 2493,
      "峻": 2494,
      "崇": 2495,
      "崎": 2496,
      "崔": 2497,
      "崖": 2498,
      "崩": 2499,
      "嵌": 2500,
      "巍": 2501,
      "巒": 2502,
      "川": 2503,
      "州": 2504,
      "巡": 2505,
      "巢": 2506,
      "巣": 2507,
      "工": 2508,
      "左": 2509,
      "巧": 2510,
      "巨": 2511,
      "巩": 2512,
      "差": 2513,
      "己": 2514,
      "已": 2515,
      "巳": 2516,
      "巴": 2517,
      "巷": 2518,
      "币": 2519,
      "市": 2520,
      "布": 2521,
      "帅": 2522,
      "帆": 2523,
      "师": 2524,
      "希": 2525,
      "帐": 2526,
      "帕": 2527,
      "帖": 2528,
      "帘": 2529,
      "帜": 2530,
      "帝": 2531,
      "带": 2532,
      "師": 2533,
      "席": 2534,
      "帮": 2535,
      "帯": 2536,
      "帰": 2537,
      "帳": 2538,
      "帶": 2539,
      "常": 2540,
      "帽": 2541,
      "幂": 2542,
      "幅": 2543,
      "幕": 2544,
      "幣": 2545,
      "幫": 2546,
      "干": 2547,
      "平": 2548,
      "年": 2549,
      "并": 2550,
      "幸": 2551,
      "幹": 2552,
      "幻": 2553,
      "幼": 2554,
      "幽": 2555,
      "幾": 2556,
      "广": 2557,
      "庁": 2558,
      "広": 2559,
      "庄": 2560,
      "庆": 2561,
      "庇": 2562,
      "床": 2563,
      "序": 2564,
      "庐": 2565,
      "库": 2566,
      "应": 2567,
      "底": 2568,
      "店": 2569,
      "庙": 2570,
      "府": 2571,
      "庞": 2572,
      "废": 2573,
      "度": 2574,
      "座": 2575,
      "庫": 2576,
      "庭": 2577,
      "康": 2578,
      "庸": 2579,
      "廉": 2580,
      "廊": 2581,
      "廟": 2582,
      "廣": 2583,
      "廳": 2584,
      "延": 2585,
      "廷": 2586,
      "建": 2587,
      "廻": 2588,
      "开": 2589,
      "异": 2590,
      "弃": 2591,
      "弄": 2592,
      "弊": 2593,
      "式": 2594,
      "弓": 2595,
      "引": 2596,
      "弗": 2597,
      "弘": 2598,
      "弛": 2599,
      "弟": 2600,
      "张": 2601,
      "弥": 2602,
      "弦": 2603,
      "弩": 2604,
      "弯": 2605,
      "弱": 2606,
      "張": 2607,
      "強": 2608,
      "弹": 2609,
      "强": 2610,
      "弼": 2611,
      "弾": 2612,
      "彎": 2613,
      "归": 2614,
      "当": 2615,
      "录": 2616,
      "彙": 2617,
      "彝": 2618,
      "形": 2619,
      "彦": 2620,
      "彩": 2621,
      "彭": 2622,
      "彰": 2623,
      "影": 2624,
      "彷": 2625,
      "役": 2626,
      "彻": 2627,
      "彼": 2628,
      "往": 2629,
      "征": 2630,
      "径": 2631,
      "待": 2632,
      "很": 2633,
      "律": 2634,
      "後": 2635,
      "徐": 2636,
      "徑": 2637,
      "徒": 2638,
      "従": 2639,
      "得": 2640,
      "徙": 2641,
      "從": 2642,
      "御": 2643,
      "徨": 2644,
      "復": 2645,
      "循": 2646,
      "微": 2647,
      "徴": 2648,
      "徵": 2649,
      "德": 2650,
      "徹": 2651,
      "徽": 2652,
      "心": 2653,
      "必": 2654,
      "忆": 2655,
      "忌": 2656,
      "忍": 2657,
      "志": 2658,
      "忘": 2659,
      "忙": 2660,
      "応": 2661,
      "忠": 2662,
      "忧": 2663,
      "快": 2664,
      "忱": 2665,
      "念": 2666,
      "忽": 2667,
      "怀": 2668,
      "态": 2669,
      "怅": 2670,
      "怎": 2671,
      "怒": 2672,
      "怕": 2673,
      "怖": 2674,
      "怜": 2675,
      "思": 2676,
      "怠": 2677,
      "怡": 2678,
      "急": 2679,
      "性": 2680,
      "怨": 2681,
      "怪": 2682,
      "怯": 2683,
      "总": 2684,
      "怼": 2685,
      "恁": 2686,
      "恃": 2687,
      "恆": 2688,
      "恋": 2689,
      "恍": 2690,
      "恐": 2691,
      "恒": 2692,
      "恕": 2693,
      "恢": 2694,
      "恣": 2695,
      "恤": 2696,
      "恨": 2697,
      "恩": 2698,
      "恭": 2699,
      "息": 2700,
      "恰": 2701,
      "恳": 2702,
      "恵": 2703,
      "恶": 2704,
      "恼": 2705,
      "悅": 2706,
      "悉": 2707,
      "悍": 2708,
      "悔": 2709,
      "悚": 2710,
      "悟": 2711,
      "悠": 2712,
      "患": 2713,
      "悦": 2714,
      "悧": 2715,
      "您": 2716,
      "悩": 2717,
      "悪": 2718,
      "悬": 2719,
      "悲": 2720,
      "悸": 2721,
      "悼": 2722,
      "情": 2723,
      "惊": 2724,
      "惋": 2725,
      "惑": 2726,
      "惕": 2727,
      "惚": 2728,
      "惜": 2729,
      "惟": 2730,
      "惠": 2731,
      "惡": 2732,
      "惦": 2733,
      "惧": 2734,
      "惨": 2735,
      "惩": 2736,
      "惫": 2737,
      "惯": 2738,
      "惰": 2739,
      "想": 2740,
      "惶": 2741,
      "惹": 2742,
      "愁": 2743,
      "愈": 2744,
      "愉": 2745,
      "意": 2746,
      "愚": 2747,
      "愛": 2748,
      "感": 2749,
      "愤": 2750,
      "愧": 2751,
      "愿": 2752,
      "慈": 2753,
      "態": 2754,
      "慌": 2755,
      "慎": 2756,
      "慑": 2757,
      "慕": 2758,
      "慘": 2759,
      "慢": 2760,
      "慣": 2761,
      "慧": 2762,
      "慨": 2763,
      "慮": 2764,
      "慰": 2765,
      "憂": 2766,
      "憐": 2767,
      "憧": 2768,
      "憩": 2769,
      "憫": 2770,
      "憬": 2771,
      "憲": 2772,
      "憶": 2773,
      "憾": 2774,
      "懂": 2775,
      "懇": 2776,
      "懈": 2777,
      "應": 2778,
      "懒": 2779,
      "懦": 2780,
      "懸": 2781,
      "懼": 2782,
      "懿": 2783,
      "戈": 2784,
      "戌": 2785,
      "戍": 2786,
      "戏": 2787,
      "成": 2788,
      "我": 2789,
      "戒": 2790,
      "或": 2791,
      "战": 2792,
      "戚": 2793,
      "戦": 2794,
      "截": 2795,
      "戰": 2796,
      "戲": 2797,
      "戴": 2798,
      "戶": 2799,
      "户": 2800,
      "戸": 2801,
      "戻": 2802,
      "房": 2803,
      "所": 2804,
      "扁": 2805,
      "扇": 2806,
      "手": 2807,
      "才": 2808,
      "扎": 2809,
      "扑": 2810,
      "打": 2811,
      "扔": 2812,
      "托": 2813,
      "扣": 2814,
      "执": 2815,
      "扩": 2816,
      "扫": 2817,
      "扬": 2818,
      "扭": 2819,
      "扮": 2820,
      "扯": 2821,
      "扰": 2822,
      "扱": 2823,
      "扶": 2824,
      "批": 2825,
      "找": 2826,
      "承": 2827,
      "技": 2828,
      "抄": 2829,
      "抉": 2830,
      "把": 2831,
      "抑": 2832,
      "抒": 2833,
      "抓": 2834,
      "投": 2835,
      "抖": 2836,
      "抗": 2837,
      "折": 2838,
      "抚": 2839,
      "抛": 2840,
      "抜": 2841,
      "択": 2842,
      "抢": 2843,
      "护": 2844,
      "报": 2845,
      "抨": 2846,
      "披": 2847,
      "抬": 2848,
      "抱": 2849,
      "抵": 2850,
      "抹": 2851,
      "押": 2852,
      "抽": 2853,
      "抿": 2854,
      "拂": 2855,
      "担": 2856,
      "拆": 2857,
      "拈": 2858,
      "拉": 2859,
      "拌": 2860,
      "拍": 2861,
      "拏": 2862,
      "拒": 2863,
      "拓": 2864,
      "拔": 2865,
      "拖": 2866,
      "拘": 2867,
      "拙": 2868,
      "招": 2869,
      "拜": 2870,
      "拝": 2871,
      "拟": 2872,
      "拡": 2873,
      "拥": 2874,
      "拦": 2875,
      "拨": 2876,
      "择": 2877,
      "括": 2878,
      "拭": 2879,
      "拮": 2880,
      "拯": 2881,
      "拱": 2882,
      "拳": 2883,
      "拶": 2884,
      "拷": 2885,
      "拼": 2886,
      "拾": 2887,
      "拿": 2888,
      "持": 2889,
      "挂": 2890,
      "指": 2891,
      "按": 2892,
      "挐": 2893,
      "挑": 2894,
      "挖": 2895,
      "挙": 2896,
      "挚": 2897,
      "挟": 2898,
      "挠": 2899,
      "挡": 2900,
      "挣": 2901,
      "挤": 2902,
      "挥": 2903,
      "挨": 2904,
      "挪": 2905,
      "挫": 2906,
      "振": 2907,
      "挺": 2908,
      "挽": 2909,
      "挿": 2910,
      "捅": 2911,
      "捆": 2912,
      "捉": 2913,
      "捍": 2914,
      "捎": 2915,
      "捏": 2916,
      "捐": 2917,
      "捕": 2918,
      "捞": 2919,
      "损": 2920,
      "换": 2921,
      "捧": 2922,
      "据": 2923,
      "捲": 2924,
      "捶": 2925,
      "捷": 2926,
      "掀": 2927,
      "掃": 2928,
      "授": 2929,
      "掉": 2930,
      "掌": 2931,
      "掏": 2932,
      "排": 2933,
      "掘": 2934,
      "掙": 2935,
      "掛": 2936,
      "掠": 2937,
      "採": 2938,
      "探": 2939,
      "掣": 2940,
      "接": 2941,
      "控": 2942,
      "推": 2943,
      "掩": 2944,
      "措": 2945,
      "掰": 2946,
      "掷": 2947,
      "掺": 2948,
      "揉": 2949,
      "描": 2950,
      "提": 2951,
      "插": 2952,
      "揚": 2953,
      "換": 2954,
      "握": 2955,
      "揣": 2956,
      "揪": 2957,
      "揭": 2958,
      "揮": 2959,
      "援": 2960,
      "揽": 2961,
      "搂": 2962,
      "搅": 2963,
      "損": 2964,
      "搏": 2965,
      "搐": 2966,
      "搓": 2967,
      "搖": 2968,
      "搜": 2969,
      "搞": 2970,
      "搬": 2971,
      "搭": 2972,
      "携": 2973,
      "摄": 2974,
      "摆": 2975,
      "摇": 2976,
      "摊": 2977,
      "摔": 2978,
      "摘": 2979,
      "摧": 2980,
      "摩": 2981,
      "摯": 2982,
      "摸": 2983,
      "摹": 2984,
      "撃": 2985,
      "撇": 2986,
      "撐": 2987,
      "撑": 2988,
      "撒": 2989,
      "撕": 2990,
      "撞": 2991,
      "撤": 2992,
      "撩": 2993,
      "播": 2994,
      "撰": 2995,
      "撸": 2996,
      "撼": 2997,
      "撿": 2998,
      "擁": 2999,
      "擅": 3000,
      "擇": 3001,
      "擊": 3002,
      "操": 3003,
      "擎": 3004,
      "擔": 3005,
      "擘": 3006,
      "據": 3007,
      "擦": 3008,
      "擬": 3009,
      "擴": 3010,
      "擾": 3011,
      "攀": 3012,
      "攒": 3013,
      "攜": 3014,
      "攝": 3015,
      "攧": 3016,
      "支": 3017,
      "收": 3018,
      "改": 3019,
      "攻": 3020,
      "放": 3021,
      "政": 3022,
      "故": 3023,
      "效": 3024,
      "敌": 3025,
      "敏": 3026,
      "救": 3027,
      "敗": 3028,
      "敘": 3029,
      "教": 3030,
      "敛": 3031,
      "敞": 3032,
      "敢": 3033,
      "散": 3034,
      "敦": 3035,
      "敬": 3036,
      "数": 3037,
      "敲": 3038,
      "整": 3039,
      "敵": 3040,
      "敷": 3041,
      "數": 3042,
      "文": 3043,
      "斐": 3044,
      "斑": 3045,
      "斓": 3046,
      "斗": 3047,
      "料": 3048,
      "斜": 3049,
      "斟": 3050,
      "斤": 3051,
      "斥": 3052,
      "斩": 3053,
      "斫": 3054,
      "断": 3055,
      "斯": 3056,
      "新": 3057,
      "斷": 3058,
      "方": 3059,
      "於": 3060,
      "施": 3061,
      "旁": 3062,
      "旅": 3063,
      "旋": 3064,
      "旎": 3065,
      "族": 3066,
      "旖": 3067,
      "旗": 3068,
      "无": 3069,
      "既": 3070,
      "日": 3071,
      "旦": 3072,
      "旧": 3073,
      "旨": 3074,
      "早": 3075,
      "旱": 3076,
      "时": 3077,
      "旷": 3078,
      "旺": 3079,
      "昂": 3080,
      "昆": 3081,
      "昇": 3082,
      "昌": 3083,
      "明": 3084,
      "昏": 3085,
      "易": 3086,
      "昔": 3087,
      "星": 3088,
      "映": 3089,
      "春": 3090,
      "昧": 3091,
      "昨": 3092,
      "昭": 3093,
      "是": 3094,
      "昼": 3095,
      "显": 3096,
      "時": 3097,
      "晃": 3098,
      "晉": 3099,
      "晋": 3100,
      "晏": 3101,
      "晒": 3102,
      "晓": 3103,
      "晔": 3104,
      "晕": 3105,
      "晖": 3106,
      "晚": 3107,
      "晝": 3108,
      "晤": 3109,
      "晦": 3110,
      "晨": 3111,
      "普": 3112,
      "景": 3113,
      "晰": 3114,
      "晴": 3115,
      "晶": 3116,
      "晷": 3117,
      "智": 3118,
      "暁": 3119,
      "暂": 3120,
      "暇": 3121,
      "暈": 3122,
      "暑": 3123,
      "暖": 3124,
      "暗": 3125,
      "暝": 3126,
      "暢": 3127,
      "暦": 3128,
      "暧": 3129,
      "暫": 3130,
      "暮": 3131,
      "暴": 3132,
      "曄": 3133,
      "曆": 3134,
      "曉": 3135,
      "曙": 3136,
      "曝": 3137,
      "曠": 3138,
      "曬": 3139,
      "曰": 3140,
      "曲": 3141,
      "曳": 3142,
      "更": 3143,
      "書": 3144,
      "曹": 3145,
      "曼": 3146,
      "曾": 3147,
      "替": 3148,
      "最": 3149,
      "會": 3150,
      "月": 3151,
      "有": 3152,
      "朋": 3153,
      "服": 3154,
      "朔": 3155,
      "朗": 3156,
      "望": 3157,
      "朝": 3158,
      "期": 3159,
      "朦": 3160,
      "木": 3161,
      "未": 3162,
      "末": 3163,
      "本": 3164,
      "札": 3165,
      "术": 3166,
      "朱": 3167,
      "朴": 3168,
      "朵": 3169,
      "机": 3170,
      "朽": 3171,
      "杀": 3172,
      "杂": 3173,
      "权": 3174,
      "杆": 3175,
      "杉": 3176,
      "李": 3177,
      "材": 3178,
      "村": 3179,
      "杜": 3180,
      "杞": 3181,
      "束": 3182,
      "杠": 3183,
      "条": 3184,
      "来": 3185,
      "杨": 3186,
      "杭": 3187,
      "杯": 3188,
      "杰": 3189,
      "東": 3190,
      "松": 3191,
      "板": 3192,
      "极": 3193,
      "构": 3194,
      "枉": 3195,
      "析": 3196,
      "枕": 3197,
      "林": 3198,
      "枚": 3199,
      "果": 3200,
      "枝": 3201,
      "枢": 3202,
      "枣": 3203,
      "枪": 3204,
      "枯": 3205,
      "架": 3206,
      "枸": 3207,
      "柄": 3208,
      "柏": 3209,
      "某": 3210,
      "染": 3211,
      "柔": 3212,
      "柚": 3213,
      "柜": 3214,
      "柠": 3215,
      "查": 3216,
      "柯": 3217,
      "柱": 3218,
      "柳": 3219,
      "柴": 3220,
      "柷": 3221,
      "査": 3222,
      "柿": 3223,
      "栄": 3224,
      "栅": 3225,
      "标": 3226,
      "栈": 3227,
      "栉": 3228,
      "栋": 3229,
      "栏": 3230,
      "树": 3231,
      "栖": 3232,
      "栗": 3233,
      "校": 3234,
      "栩": 3235,
      "株": 3236,
      "样": 3237,
      "核": 3238,
      "根": 3239,
      "格": 3240,
      "桂": 3241,
      "桃": 3242,
      "框": 3243,
      "案": 3244,
      "桌": 3245,
      "桐": 3246,
      "桑": 3247,
      "桡": 3248,
      "档": 3249,
      "桥": 3250,
      "桨": 3251,
      "桶": 3252,
      "梁": 3253,
      "梅": 3254,
      "梗": 3255,
      "條": 3256,
      "梦": 3257,
      "梨": 3258,
      "梭": 3259,
      "梯": 3260,
      "械": 3261,
      "梳": 3262,
      "梵": 3263,
      "检": 3264,
      "棄": 3265,
      "棋": 3266,
      "棍": 3267,
      "棒": 3268,
      "棘": 3269,
      "棧": 3270,
      "森": 3271,
      "棵": 3272,
      "椅": 3273,
      "植": 3274,
      "椒": 3275,
      "検": 3276,
      "椭": 3277,
      "椰": 3278,
      "椿": 3279,
      "楂": 3280,
      "楚": 3281,
      "業": 3282,
      "極": 3283,
      "楷": 3284,
      "楼": 3285,
      "楽": 3286,
      "概": 3287,
      "榄": 3288,
      "榜": 3289,
      "榨": 3290,
      "榮": 3291,
      "榴": 3292,
      "構": 3293,
      "槌": 3294,
      "様": 3295,
      "槛": 3296,
      "槟": 3297,
      "槽": 3298,
      "樂": 3299,
      "樓": 3300,
      "標": 3301,
      "模": 3302,
      "樣": 3303,
      "横": 3304,
      "樫": 3305,
      "樵": 3306,
      "樹": 3307,
      "樽": 3308,
      "橄": 3309,
      "橋": 3310,
      "橙": 3311,
      "機": 3312,
      "橡": 3313,
      "橫": 3314,
      "橿": 3315,
      "檔": 3316,
      "檢": 3317,
      "檬": 3318,
      "欄": 3319,
      "權": 3320,
      "欖": 3321,
      "欠": 3322,
      "次": 3323,
      "欢": 3324,
      "欣": 3325,
      "欧": 3326,
      "欲": 3327,
      "欺": 3328,
      "欽": 3329,
      "款": 3330,
      "歇": 3331,
      "歉": 3332,
      "歌": 3333,
      "歐": 3334,
      "歡": 3335,
      "止": 3336,
      "正": 3337,
      "此": 3338,
      "步": 3339,
      "武": 3340,
      "歧": 3341,
      "歩": 3342,
      "歪": 3343,
      "歲": 3344,
      "歳": 3345,
      "歴": 3346,
      "歷": 3347,
      "歸": 3348,
      "歹": 3349,
      "死": 3350,
      "殉": 3351,
      "殊": 3352,
      "残": 3353,
      "殖": 3354,
      "殤": 3355,
      "段": 3356,
      "殺": 3357,
      "殿": 3358,
      "毁": 3359,
      "毅": 3360,
      "母": 3361,
      "毎": 3362,
      "每": 3363,
      "毒": 3364,
      "比": 3365,
      "毕": 3366,
      "毛": 3367,
      "毡": 3368,
      "毫": 3369,
      "毯": 3370,
      "毳": 3371,
      "氏": 3372,
      "民": 3373,
      "气": 3374,
      "気": 3375,
      "氛": 3376,
      "氢": 3377,
      "氣": 3378,
      "氦": 3379,
      "氧": 3380,
      "氨": 3381,
      "氮": 3382,
      "氯": 3383,
      "水": 3384,
      "氷": 3385,
      "永": 3386,
      "氾": 3387,
      "汀": 3388,
      "汁": 3389,
      "求": 3390,
      "汇": 3391,
      "汉": 3392,
      "汎": 3393,
      "汐": 3394,
      "汕": 3395,
      "汗": 3396,
      "汚": 3397,
      "汝": 3398,
      "江": 3399,
      "池": 3400,
      "污": 3401,
      "汤": 3402,
      "汨": 3403,
      "汪": 3404,
      "汰": 3405,
      "汲": 3406,
      "決": 3407,
      "汽": 3408,
      "沁": 3409,
      "沃": 3410,
      "沅": 3411,
      "沆": 3412,
      "沈": 3413,
      "沉": 3414,
      "沌": 3415,
      "沐": 3416,
      "沒": 3417,
      "沖": 3418,
      "沙": 3419,
      "沛": 3420,
      "沟": 3421,
      "没": 3422,
      "沢": 3423,
      "沥": 3424,
      "沫": 3425,
      "沮": 3426,
      "河": 3427,
      "沸": 3428,
      "油": 3429,
      "治": 3430,
      "沽": 3431,
      "沿": 3432,
      "況": 3433,
      "泄": 3434,
      "泉": 3435,
      "泊": 3436,
      "泌": 3437,
      "泓": 3438,
      "法": 3439,
      "泛": 3440,
      "泡": 3441,
      "波": 3442,
      "泣": 3443,
      "泥": 3444,
      "注": 3445,
      "泪": 3446,
      "泰": 3447,
      "泳": 3448,
      "泵": 3449,
      "泻": 3450,
      "泼": 3451,
      "泽": 3452,
      "洁": 3453,
      "洋": 3454,
      "洒": 3455,
      "洗": 3456,
      "洛": 3457,
      "洞": 3458,
      "津": 3459,
      "洩": 3460,
      "洪": 3461,
      "洲": 3462,
      "活": 3463,
      "洽": 3464,
      "派": 3465,
      "流": 3466,
      "浅": 3467,
      "浆": 3468,
      "浇": 3469,
      "浊": 3470,
      "测": 3471,
      "济": 3472,
      "浏": 3473,
      "浑": 3474,
      "浓": 3475,
      "浙": 3476,
      "浜": 3477,
      "浣": 3478,
      "浦": 3479,
      "浩": 3480,
      "浪": 3481,
      "浮": 3482,
      "浴": 3483,
      "海": 3484,
      "浸": 3485,
      "涂": 3486,
      "消": 3487,
      "涉": 3488,
      "涌": 3489,
      "涓": 3490,
      "涛": 3491,
      "涝": 3492,
      "涟": 3493,
      "涣": 3494,
      "涤": 3495,
      "润": 3496,
      "涧": 3497,
      "涨": 3498,
      "涮": 3499,
      "涯": 3500,
      "液": 3501,
      "涵": 3502,
      "涼": 3503,
      "涿": 3504,
      "淀": 3505,
      "淅": 3506,
      "淆": 3507,
      "淋": 3508,
      "淌": 3509,
      "淘": 3510,
      "淚": 3511,
      "淡": 3512,
      "淨": 3513,
      "淫": 3514,
      "深": 3515,
      "淳": 3516,
      "淵": 3517,
      "混": 3518,
      "淹": 3519,
      "添": 3520,
      "清": 3521,
      "済": 3522,
      "渉": 3523,
      "渊": 3524,
      "渐": 3525,
      "渓": 3526,
      "渔": 3527,
      "渗": 3528,
      "渚": 3529,
      "減": 3530,
      "渝": 3531,
      "渠": 3532,
      "渡": 3533,
      "渣": 3534,
      "温": 3535,
      "測": 3536,
      "港": 3537,
      "渲": 3538,
      "渴": 3539,
      "游": 3540,
      "渺": 3541,
      "湖": 3542,
      "湘": 3543,
      "湛": 3544,
      "湧": 3545,
      "湮": 3546,
      "湯": 3547,
      "湲": 3548,
      "湾": 3549,
      "湿": 3550,
      "満": 3551,
      "溃": 3552,
      "溅": 3553,
      "溉": 3554,
      "源": 3555,
      "準": 3556,
      "溜": 3557,
      "溝": 3558,
      "溢": 3559,
      "溪": 3560,
      "溫": 3561,
      "溯": 3562,
      "溶": 3563,
      "滋": 3564,
      "滑": 3565,
      "滕": 3566,
      "滚": 3567,
      "滞": 3568,
      "满": 3569,
      "滤": 3570,
      "滥": 3571,
      "滨": 3572,
      "滩": 3573,
      "滴": 3574,
      "滿": 3575,
      "漁": 3576,
      "漂": 3577,
      "漆": 3578,
      "漉": 3579,
      "漏": 3580,
      "演": 3581,
      "漠": 3582,
      "漢": 3583,
      "漪": 3584,
      "漫": 3585,
      "漱": 3586,
      "漲": 3587,
      "漸": 3588,
      "漼": 3589,
      "漾": 3590,
      "潔": 3591,
      "潘": 3592,
      "潛": 3593,
      "潜": 3594,
      "潭": 3595,
      "潮": 3596,
      "潰": 3597,
      "潺": 3598,
      "澄": 3599,
      "澈": 3600,
      "澗": 3601,
      "澜": 3602,
      "澡": 3603,
      "澤": 3604,
      "澳": 3605,
      "激": 3606,
      "濃": 3607,
      "濑": 3608,
      "濒": 3609,
      "濕": 3610,
      "濟": 3611,
      "濠": 3612,
      "濤": 3613,
      "濫": 3614,
      "濾": 3615,
      "瀍": 3616,
      "瀏": 3617,
      "瀑": 3618,
      "瀚": 3619,
      "瀰": 3620,
      "灌": 3621,
      "灑": 3622,
      "灣": 3623,
      "火": 3624,
      "灭": 3625,
      "灯": 3626,
      "灰": 3627,
      "灵": 3628,
      "灸": 3629,
      "灼": 3630,
      "災": 3631,
      "灾": 3632,
      "灿": 3633,
      "炉": 3634,
      "炎": 3635,
      "炒": 3636,
      "炖": 3637,
      "炙": 3638,
      "炫": 3639,
      "炬": 3640,
      "炭": 3641,
      "炮": 3642,
      "炸": 3643,
      "点": 3644,
      "為": 3645,
      "炼": 3646,
      "炽": 3647,
      "烁": 3648,
      "烂": 3649,
      "烈": 3650,
      "烘": 3651,
      "烙": 3652,
      "烛": 3653,
      "烟": 3654,
      "烤": 3655,
      "烦": 3656,
      "烧": 3657,
      "烩": 3658,
      "烫": 3659,
      "烬": 3660,
      "热": 3661,
      "烹": 3662,
      "焉": 3663,
      "焊": 3664,
      "焕": 3665,
      "焖": 3666,
      "焗": 3667,
      "焙": 3668,
      "焚": 3669,
      "無": 3670,
      "焢": 3671,
      "焦": 3672,
      "焯": 3673,
      "然": 3674,
      "焼": 3675,
      "煌": 3676,
      "煎": 3677,
      "煙": 3678,
      "煞": 3679,
      "煤": 3680,
      "照": 3681,
      "煨": 3682,
      "煮": 3683,
      "煲": 3684,
      "煸": 3685,
      "煽": 3686,
      "熊": 3687,
      "熒": 3688,
      "熔": 3689,
      "熙": 3690,
      "熟": 3691,
      "熨": 3692,
      "熬": 3693,
      "熱": 3694,
      "熵": 3695,
      "燃": 3696,
      "燈": 3697,
      "燒": 3698,
      "燕": 3699,
      "營": 3700,
      "燥": 3701,
      "燦": 3702,
      "燮": 3703,
      "爆": 3704,
      "爍": 3705,
      "爛": 3706,
      "爪": 3707,
      "爬": 3708,
      "爭": 3709,
      "爱": 3710,
      "爲": 3711,
      "爵": 3712,
      "父": 3713,
      "爷": 3714,
      "爸": 3715,
      "爹": 3716,
      "爺": 3717,
      "爽": 3718,
      "爾": 3719,
      "牆": 3720,
      "片": 3721,
      "版": 3722,
      "牌": 3723,
      "牒": 3724,
      "牙": 3725,
      "牛": 3726,
      "牡": 3727,
      "牢": 3728,
      "牧": 3729,
      "物": 3730,
      "牲": 3731,
      "牵": 3732,
      "特": 3733,
      "牺": 3734,
      "牽": 3735,
      "犬": 3736,
      "犯": 3737,
      "状": 3738,
      "犷": 3739,
      "犹": 3740,
      "狀": 3741,
      "狂": 3742,
      "狎": 3743,
      "狐": 3744,
      "狗": 3745,
      "狙": 3746,
      "狠": 3747,
      "狡": 3748,
      "狩": 3749,
      "独": 3750,
      "狭": 3751,
      "狮": 3752,
      "狱": 3753,
      "狼": 3754,
      "猎": 3755,
      "猛": 3756,
      "猜": 3757,
      "猟": 3758,
      "猩": 3759,
      "猪": 3760,
      "猫": 3761,
      "献": 3762,
      "猱": 3763,
      "猴": 3764,
      "猶": 3765,
      "猾": 3766,
      "猿": 3767,
      "獣": 3768,
      "獨": 3769,
      "獲": 3770,
      "獻": 3771,
      "玄": 3772,
      "率": 3773,
      "玉": 3774,
      "王": 3775,
      "玛": 3776,
      "玩": 3777,
      "玫": 3778,
      "环": 3779,
      "现": 3780,
      "玲": 3781,
      "玻": 3782,
      "珍": 3783,
      "珑": 3784,
      "珠": 3785,
      "班": 3786,
      "珰": 3787,
      "現": 3788,
      "球": 3789,
      "理": 3790,
      "琐": 3791,
      "琢": 3792,
      "琴": 3793,
      "琵": 3794,
      "琶": 3795,
      "瑕": 3796,
      "瑜": 3797,
      "瑞": 3798,
      "瑟": 3799,
      "瑩": 3800,
      "瑰": 3801,
      "瑶": 3802,
      "璃": 3803,
      "璇": 3804,
      "環": 3805,
      "瓜": 3806,
      "瓣": 3807,
      "瓦": 3808,
      "瓯": 3809,
      "瓶": 3810,
      "瓷": 3811,
      "甄": 3812,
      "甘": 3813,
      "甙": 3814,
      "甚": 3815,
      "甜": 3816,
      "生": 3817,
      "產": 3818,
      "産": 3819,
      "甦": 3820,
      "用": 3821,
      "甫": 3822,
      "田": 3823,
      "由": 3824,
      "甲": 3825,
      "申": 3826,
      "电": 3827,
      "男": 3828,
      "甸": 3829,
      "町": 3830,
      "画": 3831,
      "甾": 3832,
      "畅": 3833,
      "界": 3834,
      "畏": 3835,
      "畔": 3836,
      "留": 3837,
      "畜": 3838,
      "畢": 3839,
      "略": 3840,
      "番": 3841,
      "畫": 3842,
      "異": 3843,
      "畴": 3844,
      "當": 3845,
      "疆": 3846,
      "疇": 3847,
      "疎": 3848,
      "疏": 3849,
      "疑": 3850,
      "疗": 3851,
      "疡": 3852,
      "疫": 3853,
      "疯": 3854,
      "疲": 3855,
      "疵": 3856,
      "疹": 3857,
      "疼": 3858,
      "疾": 3859,
      "病": 3860,
      "症": 3861,
      "痒": 3862,
      "痕": 3863,
      "痛": 3864,
      "痴": 3865,
      "瘙": 3866,
      "瘟": 3867,
      "瘦": 3868,
      "瘸": 3869,
      "瘾": 3870,
      "療": 3871,
      "癌": 3872,
      "癒": 3873,
      "癥": 3874,
      "発": 3875,
      "登": 3876,
      "發": 3877,
      "白": 3878,
      "百": 3879,
      "的": 3880,
      "皆": 3881,
      "皇": 3882,
      "皎": 3883,
      "皮": 3884,
      "盈": 3885,
      "益": 3886,
      "盎": 3887,
      "盐": 3888,
      "监": 3889,
      "盒": 3890,
      "盔": 3891,
      "盖": 3892,
      "盗": 3893,
      "盘": 3894,
      "盛": 3895,
      "盜": 3896,
      "盟": 3897,
      "盡": 3898,
      "監": 3899,
      "盤": 3900,
      "盪": 3901,
      "目": 3902,
      "盲": 3903,
      "直": 3904,
      "相": 3905,
      "盼": 3906,
      "盾": 3907,
      "省": 3908,
      "眉": 3909,
      "看": 3910,
      "県": 3911,
      "真": 3912,
      "眠": 3913,
      "眨": 3914,
      "眯": 3915,
      "眸": 3916,
      "眺": 3917,
      "眼": 3918,
      "眾": 3919,
      "着": 3920,
      "睁": 3921,
      "睐": 3922,
      "睛": 3923,
      "睡": 3924,
      "督": 3925,
      "睦": 3926,
      "睫": 3927,
      "睹": 3928,
      "睿": 3929,
      "瞄": 3930,
      "瞌": 3931,
      "瞒": 3932,
      "瞩": 3933,
      "瞬": 3934,
      "瞭": 3935,
      "瞰": 3936,
      "瞳": 3937,
      "瞻": 3938,
      "矛": 3939,
      "矣": 3940,
      "知": 3941,
      "矩": 3942,
      "短": 3943,
      "矮": 3944,
      "石": 3945,
      "矶": 3946,
      "矿": 3947,
      "砀": 3948,
      "码": 3949,
      "砂": 3950,
      "砍": 3951,
      "砒": 3952,
      "研": 3953,
      "砖": 3954,
      "砧": 3955,
      "破": 3956,
      "砸": 3957,
      "础": 3958,
      "硅": 3959,
      "硕": 3960,
      "硫": 3961,
      "硬": 3962,
      "确": 3963,
      "碉": 3964,
      "碌": 3965,
      "碍": 3966,
      "碎": 3967,
      "碑": 3968,
      "碗": 3969,
      "碧": 3970,
      "碰": 3971,
      "碱": 3972,
      "碳": 3973,
      "確": 3974,
      "碼": 3975,
      "碾": 3976,
      "磁": 3977,
      "磅": 3978,
      "磨": 3979,
      "磷": 3980,
      "礎": 3981,
      "礙": 3982,
      "礴": 3983,
      "示": 3984,
      "礼": 3985,
      "社": 3986,
      "祈": 3987,
      "祉": 3988,
      "祐": 3989,
      "祖": 3990,
      "祛": 3991,
      "祝": 3992,
      "神": 3993,
      "祠": 3994,
      "祥": 3995,
      "票": 3996,
      "祭": 3997,
      "祯": 3998,
      "祸": 3999,
      "禁": 4000,
      "禅": 4001,
      "禍": 4002,
      "福": 4003,
      "禧": 4004,
      "禮": 4005,
      "禹": 4006,
      "离": 4007,
      "禽": 4008,
      "秀": 4009,
      "私": 4010,
      "秃": 4011,
      "秉": 4012,
      "秋": 4013,
      "种": 4014,
      "科": 4015,
      "秒": 4016,
      "秘": 4017,
      "租": 4018,
      "秦": 4019,
      "秩": 4020,
      "积": 4021,
      "称": 4022,
      "移": 4023,
      "稀": 4024,
      "稅": 4025,
      "程": 4026,
      "稍": 4027,
      "税": 4028,
      "稚": 4029,
      "稠": 4030,
      "種": 4031,
      "稱": 4032,
      "稳": 4033,
      "稻": 4034,
      "稽": 4035,
      "稿": 4036,
      "穆": 4037,
      "積": 4038,
      "穎": 4039,
      "穩": 4040,
      "穫": 4041,
      "穴": 4042,
      "究": 4043,
      "穷": 4044,
      "穹": 4045,
      "空": 4046,
      "穿": 4047,
      "突": 4048,
      "窃": 4049,
      "窄": 4050,
      "窑": 4051,
      "窒": 4052,
      "窓": 4053,
      "窖": 4054,
      "窗": 4055,
      "窝": 4056,
      "窟": 4057,
      "窮": 4058,
      "立": 4059,
      "站": 4060,
      "竜": 4061,
      "竞": 4062,
      "竟": 4063,
      "章": 4064,
      "童": 4065,
      "竭": 4066,
      "端": 4067,
      "競": 4068,
      "竹": 4069,
      "笃": 4070,
      "笑": 4071,
      "笔": 4072,
      "笛": 4073,
      "笠": 4074,
      "符": 4075,
      "笨": 4076,
      "第": 4077,
      "笼": 4078,
      "筆": 4079,
      "等": 4080,
      "筋": 4081,
      "筑": 4082,
      "答": 4083,
      "策": 4084,
      "筛": 4085,
      "筝": 4086,
      "筷": 4087,
      "筹": 4088,
      "签": 4089,
      "简": 4090,
      "算": 4091,
      "管": 4092,
      "箩": 4093,
      "箭": 4094,
      "箱": 4095,
      "節": 4096,
      "範": 4097,
      "篆": 4098,
      "篇": 4099,
      "築": 4100,
      "篡": 4101,
      "篦": 4102,
      "篮": 4103,
      "篷": 4104,
      "簡": 4105,
      "簽": 4106,
      "簿": 4107,
      "籃": 4108,
      "籍": 4109,
      "籟": 4110,
      "籠": 4111,
      "籤": 4112,
      "米": 4113,
      "类": 4114,
      "籼": 4115,
      "粉": 4116,
      "粒": 4117,
      "粗": 4118,
      "粘": 4119,
      "粟": 4120,
      "粤": 4121,
      "粥": 4122,
      "粮": 4123,
      "粵": 4124,
      "粹": 4125,
      "精": 4126,
      "糊": 4127,
      "糕": 4128,
      "糖": 4129,
      "糙": 4130,
      "糜": 4131,
      "糟": 4132,
      "糠": 4133,
      "糯": 4134,
      "糸": 4135,
      "系": 4136,
      "糾": 4137,
      "紀": 4138,
      "約": 4139,
      "紅": 4140,
      "紊": 4141,
      "納": 4142,
      "紓": 4143,
      "純": 4144,
      "紙": 4145,
      "級": 4146,
      "紛": 4147,
      "紜": 4148,
      "素": 4149,
      "索": 4150,
      "紧": 4151,
      "紫": 4152,
      "累": 4153,
      "細": 4154,
      "紹": 4155,
      "終": 4156,
      "組": 4157,
      "絆": 4158,
      "経": 4159,
      "結": 4160,
      "絕": 4161,
      "絡": 4162,
      "給": 4163,
      "絮": 4164,
      "統": 4165,
      "絲": 4166,
      "絶": 4167,
      "經": 4168,
      "継": 4169,
      "続": 4170,
      "綜": 4171,
      "綠": 4172,
      "綢": 4173,
      "維": 4174,
      "綱": 4175,
      "網": 4176,
      "綴": 4177,
      "綺": 4178,
      "綻": 4179,
      "綿": 4180,
      "緊": 4181,
      "総": 4182,
      "緑": 4183,
      "緒": 4184,
      "線": 4185,
      "緣": 4186,
      "編": 4187,
      "緩": 4188,
      "練": 4189,
      "縁": 4190,
      "縛": 4191,
      "縮": 4192,
      "總": 4193,
      "績": 4194,
      "繁": 4195,
      "織": 4196,
      "繞": 4197,
      "繪": 4198,
      "繫": 4199,
      "繰": 4200,
      "繼": 4201,
      "纂": 4202,
      "續": 4203,
      "纠": 4204,
      "红": 4205,
      "纤": 4206,
      "约": 4207,
      "级": 4208,
      "纪": 4209,
      "纯": 4210,
      "纱": 4211,
      "纲": 4212,
      "纳": 4213,
      "纵": 4214,
      "纶": 4215,
      "纷": 4216,
      "纸": 4217,
      "纹": 4218,
      "纺": 4219,
      "纽": 4220,
      "纾": 4221,
      "线": 4222,
      "练": 4223,
      "组": 4224,
      "细": 4225,
      "织": 4226,
      "终": 4227,
      "绊": 4228,
      "绍": 4229,
      "绎": 4230,
      "经": 4231,
      "绑": 4232,
      "结": 4233,
      "绕": 4234,
      "绘": 4235,
      "给": 4236,
      "绚": 4237,
      "络": 4238,
      "绝": 4239,
      "绞": 4240,
      "统": 4241,
      "绣": 4242,
      "继": 4243,
      "绩": 4244,
      "绪": 4245,
      "续": 4246,
      "绮": 4247,
      "绰": 4248,
      "绳": 4249,
      "维": 4250,
      "绵": 4251,
      "绸": 4252,
      "综": 4253,
      "绽": 4254,
      "绿": 4255,
      "缀": 4256,
      "缅": 4257,
      "缆": 4258,
      "缈": 4259,
      "缓": 4260,
      "缔": 4261,
      "缕": 4262,
      "编": 4263,
      "缘": 4264,
      "缚": 4265,
      "缛": 4266,
      "缠": 4267,
      "缤": 4268,
      "缥": 4269,
      "缩": 4270,
      "缪": 4271,
      "缭": 4272,
      "缴": 4273,
      "缸": 4274,
      "缺": 4275,
      "罐": 4276,
      "网": 4277,
      "罕": 4278,
      "罗": 4279,
      "罚": 4280,
      "罩": 4281,
      "罪": 4282,
      "置": 4283,
      "署": 4284,
      "羁": 4285,
      "羅": 4286,
      "羊": 4287,
      "羌": 4288,
      "美": 4289,
      "羔": 4290,
      "羞": 4291,
      "羡": 4292,
      "羣": 4293,
      "群": 4294,
      "義": 4295,
      "羹": 4296,
      "羽": 4297,
      "翁": 4298,
      "翅": 4299,
      "翌": 4300,
      "翎": 4301,
      "習": 4302,
      "翔": 4303,
      "翘": 4304,
      "翠": 4305,
      "翩": 4306,
      "翰": 4307,
      "翱": 4308,
      "翻": 4309,
      "翼": 4310,
      "耀": 4311,
      "老": 4312,
      "考": 4313,
      "者": 4314,
      "而": 4315,
      "耍": 4316,
      "耐": 4317,
      "耕": 4318,
      "耗": 4319,
      "耳": 4320,
      "耶": 4321,
      "聆": 4322,
      "聊": 4323,
      "职": 4324,
      "联": 4325,
      "聖": 4326,
      "聘": 4327,
      "聚": 4328,
      "聞": 4329,
      "聪": 4330,
      "聯": 4331,
      "聰": 4332,
      "聲": 4333,
      "聳": 4334,
      "聴": 4335,
      "職": 4336,
      "聽": 4337,
      "肃": 4338,
      "肅": 4339,
      "肆": 4340,
      "肉": 4341,
      "肌": 4342,
      "肖": 4343,
      "肘": 4344,
      "肚": 4345,
      "肝": 4346,
      "肠": 4347,
      "股": 4348,
      "肢": 4349,
      "肤": 4350,
      "肥": 4351,
      "肩": 4352,
      "肪": 4353,
      "肯": 4354,
      "肱": 4355,
      "育": 4356,
      "肴": 4357,
      "肺": 4358,
      "肽": 4359,
      "肾": 4360,
      "肿": 4361,
      "胀": 4362,
      "胁": 4363,
      "胃": 4364,
      "胆": 4365,
      "背": 4366,
      "胎": 4367,
      "胖": 4368,
      "胜": 4369,
      "胞": 4370,
      "胡": 4371,
      "胥": 4372,
      "胫": 4373,
      "胶": 4374,
      "胸": 4375,
      "胺": 4376,
      "能": 4377,
      "脂": 4378,
      "脅": 4379,
      "脆": 4380,
      "脈": 4381,
      "脉": 4382,
      "脍": 4383,
      "脏": 4384,
      "脑": 4385,
      "脖": 4386,
      "脚": 4387,
      "脫": 4388,
      "脱": 4389,
      "脳": 4390,
      "脸": 4391,
      "脹": 4392,
      "脾": 4393,
      "腊": 4394,
      "腋": 4395,
      "腌": 4396,
      "腐": 4397,
      "腔": 4398,
      "腕": 4399,
      "腘": 4400,
      "腥": 4401,
      "腦": 4402,
      "腩": 4403,
      "腰": 4404,
      "腳": 4405,
      "腸": 4406,
      "腹": 4407,
      "腻": 4408,
      "腾": 4409,
      "腿": 4410,
      "膀": 4411,
      "膚": 4412,
      "膜": 4413,
      "膨": 4414,
      "膳": 4415,
      "膺": 4416,
      "臂": 4417,
      "臆": 4418,
      "臉": 4419,
      "臟": 4420,
      "臨": 4421,
      "自": 4422,
      "臭": 4423,
      "至": 4424,
      "致": 4425,
      "臺": 4426,
      "舆": 4427,
      "與": 4428,
      "興": 4429,
      "舉": 4430,
      "舊": 4431,
      "舌": 4432,
      "舍": 4433,
      "舒": 4434,
      "舜": 4435,
      "舞": 4436,
      "舟": 4437,
      "航": 4438,
      "般": 4439,
      "舰": 4440,
      "舱": 4441,
      "船": 4442,
      "艇": 4443,
      "艘": 4444,
      "艮": 4445,
      "良": 4446,
      "艰": 4447,
      "艱": 4448,
      "色": 4449,
      "艳": 4450,
      "艺": 4451,
      "艾": 4452,
      "节": 4453,
      "芒": 4454,
      "芙": 4455,
      "芜": 4456,
      "芝": 4457,
      "芡": 4458,
      "芥": 4459,
      "芩": 4460,
      "芬": 4461,
      "芯": 4462,
      "花": 4463,
      "芳": 4464,
      "芹": 4465,
      "芽": 4466,
      "苍": 4467,
      "苏": 4468,
      "苑": 4469,
      "苒": 4470,
      "苔": 4471,
      "苗": 4472,
      "苞": 4473,
      "苟": 4474,
      "若": 4475,
      "苦": 4476,
      "英": 4477,
      "苷": 4478,
      "苹": 4479,
      "茂": 4480,
      "范": 4481,
      "茄": 4482,
      "茅": 4483,
      "茉": 4484,
      "茎": 4485,
      "茏": 4486,
      "茗": 4487,
      "茨": 4488,
      "茫": 4489,
      "茵": 4490,
      "茶": 4491,
      "荀": 4492,
      "荆": 4493,
      "草": 4494,
      "荏": 4495,
      "荐": 4496,
      "荒": 4497,
      "荔": 4498,
      "荡": 4499,
      "荣": 4500,
      "荤": 4501,
      "荨": 4502,
      "荫": 4503,
      "药": 4504,
      "荷": 4505,
      "莆": 4506,
      "莉": 4507,
      "莊": 4508,
      "莎": 4509,
      "莓": 4510,
      "莖": 4511,
      "莘": 4512,
      "莫": 4513,
      "莱": 4514,
      "莲": 4515,
      "获": 4516,
      "莹": 4517,
      "莺": 4518,
      "莽": 4519,
      "菁": 4520,
      "菇": 4521,
      "菊": 4522,
      "菌": 4523,
      "菓": 4524,
      "菜": 4525,
      "菠": 4526,
      "華": 4527,
      "菱": 4528,
      "菲": 4529,
      "萄": 4530,
      "萌": 4531,
      "萝": 4532,
      "营": 4533,
      "萦": 4534,
      "萧": 4535,
      "萨": 4536,
      "萩": 4537,
      "萬": 4538,
      "萱": 4539,
      "落": 4540,
      "葉": 4541,
      "著": 4542,
      "葛": 4543,
      "葡": 4544,
      "葬": 4545,
      "葱": 4546,
      "蒂": 4547,
      "蒙": 4548,
      "蒜": 4549,
      "蒲": 4550,
      "蒸": 4551,
      "蒼": 4552,
      "蓄": 4553,
      "蓉": 4554,
      "蓋": 4555,
      "蓑": 4556,
      "蓝": 4557,
      "蓟": 4558,
      "蓬": 4559,
      "蓮": 4560,
      "蔑": 4561,
      "蔓": 4562,
      "蔔": 4563,
      "蔗": 4564,
      "蔚": 4565,
      "蔡": 4566,
      "蔥": 4567,
      "蔬": 4568,
      "蔴": 4569,
      "蔽": 4570,
      "蕃": 4571,
      "蕉": 4572,
      "蕊": 4573,
      "蕴": 4574,
      "蕾": 4575,
      "薄": 4576,
      "薦": 4577,
      "薩": 4578,
      "薪": 4579,
      "薬": 4580,
      "薯": 4581,
      "藏": 4582,
      "藐": 4583,
      "藕": 4584,
      "藜": 4585,
      "藝": 4586,
      "藤": 4587,
      "藥": 4588,
      "藩": 4589,
      "蘇": 4590,
      "蘑": 4591,
      "蘿": 4592,
      "虎": 4593,
      "虏": 4594,
      "虐": 4595,
      "虑": 4596,
      "處": 4597,
      "虚": 4598,
      "虛": 4599,
      "虜": 4600,
      "虞": 4601,
      "號": 4602,
      "虫": 4603,
      "虹": 4604,
      "虽": 4605,
      "虾": 4606,
      "蚀": 4607,
      "蚁": 4608,
      "蚊": 4609,
      "蚩": 4610,
      "蛇": 4611,
      "蛊": 4612,
      "蛋": 4613,
      "蛙": 4614,
      "蛛": 4615,
      "蛤": 4616,
      "蛮": 4617,
      "蜀": 4618,
      "蜂": 4619,
      "蜇": 4620,
      "蜕": 4621,
      "蜗": 4622,
      "蜘": 4623,
      "蜜": 4624,
      "蜡": 4625,
      "蜥": 4626,
      "蜴": 4627,
      "蜷": 4628,
      "蝇": 4629,
      "蝙": 4630,
      "蝠": 4631,
      "蝴": 4632,
      "蝶": 4633,
      "蝼": 4634,
      "融": 4635,
      "螺": 4636,
      "蟹": 4637,
      "蠢": 4638,
      "蠻": 4639,
      "血": 4640,
      "衅": 4641,
      "衆": 4642,
      "行": 4643,
      "衍": 4644,
      "術": 4645,
      "衔": 4646,
      "街": 4647,
      "衛": 4648,
      "衝": 4649,
      "衡": 4650,
      "衣": 4651,
      "补": 4652,
      "表": 4653,
      "衫": 4654,
      "衬": 4655,
      "衰": 4656,
      "衷": 4657,
      "衾": 4658,
      "袋": 4659,
      "袍": 4660,
      "袖": 4661,
      "袤": 4662,
      "被": 4663,
      "袭": 4664,
      "裁": 4665,
      "裂": 4666,
      "装": 4667,
      "裏": 4668,
      "裔": 4669,
      "裕": 4670,
      "裘": 4671,
      "裙": 4672,
      "補": 4673,
      "裝": 4674,
      "裡": 4675,
      "裤": 4676,
      "裨": 4677,
      "裸": 4678,
      "裹": 4679,
      "製": 4680,
      "複": 4681,
      "褒": 4682,
      "褪": 4683,
      "褲": 4684,
      "襄": 4685,
      "西": 4686,
      "要": 4687,
      "覆": 4688,
      "見": 4689,
      "規": 4690,
      "視": 4691,
      "覚": 4692,
      "親": 4693,
      "観": 4694,
      "覺": 4695,
      "覽": 4696,
      "觀": 4697,
      "见": 4698,
      "观": 4699,
      "规": 4700,
      "视": 4701,
      "览": 4702,
      "觉": 4703,
      "角": 4704,
      "解": 4705,
      "触": 4706,
      "觸": 4707,
      "言": 4708,
      "訂": 4709,
      "計": 4710,
      "訊": 4711,
      "討": 4712,
      "訓": 4713,
      "記": 4714,
      "訝": 4715,
      "訪": 4716,
      "設": 4717,
      "許": 4718,
      "訳": 4719,
      "訴": 4720,
      "診": 4721,
      "証": 4722,
      "評": 4723,
      "詞": 4724,
      "詠": 4725,
      "詢": 4726,
      "試": 4727,
      "詩": 4728,
      "詫": 4729,
      "詰": 4730,
      "話": 4731,
      "該": 4732,
      "詳": 4733,
      "詹": 4734,
      "誇": 4735,
      "誉": 4736,
      "認": 4737,
      "誓": 4738,
      "誕": 4739,
      "語": 4740,
      "誠": 4741,
      "誤": 4742,
      "誦": 4743,
      "說": 4744,
      "説": 4745,
      "読": 4746,
      "誰": 4747,
      "課": 4748,
      "調": 4749,
      "談": 4750,
      "請": 4751,
      "論": 4752,
      "諦": 4753,
      "諧": 4754,
      "諫": 4755,
      "諮": 4756,
      "諷": 4757,
      "諾": 4758,
      "謂": 4759,
      "謊": 4760,
      "謎": 4761,
      "謔": 4762,
      "謙": 4763,
      "講": 4764,
      "謝": 4765,
      "謹": 4766,
      "證": 4767,
      "識": 4768,
      "警": 4769,
      "譬": 4770,
      "譯": 4771,
      "議": 4772,
      "護": 4773,
      "譽": 4774,
      "讀": 4775,
      "變": 4776,
      "讓": 4777,
      "讚": 4778,
      "计": 4779,
      "订": 4780,
      "认": 4781,
      "讨": 4782,
      "让": 4783,
      "训": 4784,
      "议": 4785,
      "讯": 4786,
      "记": 4787,
      "讲": 4788,
      "讶": 4789,
      "讷": 4790,
      "许": 4791,
      "论": 4792,
      "讼": 4793,
      "讽": 4794,
      "设": 4795,
      "访": 4796,
      "证": 4797,
      "评": 4798,
      "识": 4799,
      "诈": 4800,
      "诉": 4801,
      "诊": 4802,
      "诋": 4803,
      "词": 4804,
      "译": 4805,
      "试": 4806,
      "诗": 4807,
      "诙": 4808,
      "诚": 4809,
      "话": 4810,
      "诞": 4811,
      "诠": 4812,
      "诡": 4813,
      "询": 4814,
      "该": 4815,
      "详": 4816,
      "诨": 4817,
      "诫": 4818,
      "诬": 4819,
      "语": 4820,
      "误": 4821,
      "诱": 4822,
      "诲": 4823,
      "说": 4824,
      "诵": 4825,
      "请": 4826,
      "诸": 4827,
      "诺": 4828,
      "读": 4829,
      "诽": 4830,
      "课": 4831,
      "谁": 4832,
      "调": 4833,
      "谅": 4834,
      "谈": 4835,
      "谊": 4836,
      "谋": 4837,
      "谍": 4838,
      "谎": 4839,
      "谐": 4840,
      "谑": 4841,
      "谒": 4842,
      "谓": 4843,
      "谚": 4844,
      "谛": 4845,
      "谜": 4846,
      "谟": 4847,
      "谢": 4848,
      "谣": 4849,
      "谤": 4850,
      "谦": 4851,
      "谨": 4852,
      "谬": 4853,
      "谭": 4854,
      "谱": 4855,
      "谴": 4856,
      "谷": 4857,
      "豁": 4858,
      "豆": 4859,
      "豊": 4860,
      "豌": 4861,
      "豐": 4862,
      "象": 4863,
      "豪": 4864,
      "豫": 4865,
      "豹": 4866,
      "貌": 4867,
      "貓": 4868,
      "負": 4869,
      "財": 4870,
      "貢": 4871,
      "貧": 4872,
      "貨": 4873,
      "販": 4874,
      "貫": 4875,
      "責": 4876,
      "貴": 4877,
      "貶": 4878,
      "買": 4879,
      "費": 4880,
      "貿": 4881,
      "賀": 4882,
      "資": 4883,
      "賑": 4884,
      "賛": 4885,
      "賞": 4886,
      "賣": 4887,
      "賦": 4888,
      "質": 4889,
      "賴": 4890,
      "購": 4891,
      "贅": 4892,
      "贈": 4893,
      "贏": 4894,
      "贝": 4895,
      "负": 4896,
      "贡": 4897,
      "财": 4898,
      "责": 4899,
      "贤": 4900,
      "败": 4901,
      "账": 4902,
      "货": 4903,
      "质": 4904,
      "贪": 4905,
      "贫": 4906,
      "贬": 4907,
      "购": 4908,
      "贯": 4909,
      "贱": 4910,
      "贴": 4911,
      "贵": 4912,
      "贷": 4913,
      "贸": 4914,
      "费": 4915,
      "贺": 4916,
      "贾": 4917,
      "贿": 4918,
      "赁": 4919,
      "赃": 4920,
      "资": 4921,
      "赈": 4922,
      "赋": 4923,
      "赌": 4924,
      "赏": 4925,
      "赐": 4926,
      "赓": 4927,
      "赔": 4928,
      "赖": 4929,
      "赚": 4930,
      "赛": 4931,
      "赞": 4932,
      "赠": 4933,
      "赡": 4934,
      "赢": 4935,
      "赣": 4936,
      "赤": 4937,
      "赦": 4938,
      "赫": 4939,
      "走": 4940,
      "赴": 4941,
      "赶": 4942,
      "起": 4943,
      "趁": 4944,
      "超": 4945,
      "越": 4946,
      "趋": 4947,
      "趕": 4948,
      "趟": 4949,
      "趣": 4950,
      "趨": 4951,
      "足": 4952,
      "跃": 4953,
      "跌": 4954,
      "跑": 4955,
      "距": 4956,
      "跟": 4957,
      "跡": 4958,
      "跨": 4959,
      "跪": 4960,
      "跬": 4961,
      "路": 4962,
      "跳": 4963,
      "践": 4964,
      "踊": 4965,
      "踏": 4966,
      "踐": 4967,
      "踝": 4968,
      "踢": 4969,
      "踩": 4970,
      "踪": 4971,
      "踵": 4972,
      "蹄": 4973,
      "蹅": 4974,
      "蹈": 4975,
      "蹦": 4976,
      "蹩": 4977,
      "蹲": 4978,
      "蹴": 4979,
      "躁": 4980,
      "身": 4981,
      "躯": 4982,
      "躲": 4983,
      "車": 4984,
      "軌": 4985,
      "軍": 4986,
      "軟": 4987,
      "転": 4988,
      "軽": 4989,
      "較": 4990,
      "載": 4991,
      "輔": 4992,
      "輕": 4993,
      "輛": 4994,
      "輝": 4995,
      "輩": 4996,
      "輪": 4997,
      "輯": 4998,
      "輸": 4999,
      "轉": 5000,
      "车": 5001,
      "轨": 5002,
      "轩": 5003,
      "转": 5004,
      "轮": 5005,
      "软": 5006,
      "轰": 5007,
      "轴": 5008,
      "轻": 5009,
      "轼": 5010,
      "载": 5011,
      "较": 5012,
      "辄": 5013,
      "辅": 5014,
      "辆": 5015,
      "辈": 5016,
      "辉": 5017,
      "辍": 5018,
      "辐": 5019,
      "辑": 5020,
      "输": 5021,
      "辕": 5022,
      "辖": 5023,
      "辙": 5024,
      "辛": 5025,
      "辜": 5026,
      "辞": 5027,
      "辟": 5028,
      "辣": 5029,
      "辦": 5030,
      "辨": 5031,
      "辩": 5032,
      "辰": 5033,
      "辱": 5034,
      "農": 5035,
      "边": 5036,
      "辺": 5037,
      "込": 5038,
      "辽": 5039,
      "达": 5040,
      "迁": 5041,
      "迄": 5042,
      "迅": 5043,
      "过": 5044,
      "迈": 5045,
      "迎": 5046,
      "运": 5047,
      "近": 5048,
      "返": 5049,
      "还": 5050,
      "这": 5051,
      "进": 5052,
      "远": 5053,
      "违": 5054,
      "连": 5055,
      "迟": 5056,
      "迤": 5057,
      "迥": 5058,
      "迪": 5059,
      "迫": 5060,
      "迭": 5061,
      "述": 5062,
      "迷": 5063,
      "迸": 5064,
      "迹": 5065,
      "追": 5066,
      "退": 5067,
      "送": 5068,
      "适": 5069,
      "逃": 5070,
      "逆": 5071,
      "选": 5072,
      "逊": 5073,
      "透": 5074,
      "逐": 5075,
      "递": 5076,
      "途": 5077,
      "逗": 5078,
      "這": 5079,
      "通": 5080,
      "逛": 5081,
      "逝": 5082,
      "速": 5083,
      "造": 5084,
      "逢": 5085,
      "連": 5086,
      "週": 5087,
      "進": 5088,
      "逶": 5089,
      "逸": 5090,
      "逻": 5091,
      "逼": 5092,
      "遁": 5093,
      "遂": 5094,
      "遇": 5095,
      "遊": 5096,
      "運": 5097,
      "遍": 5098,
      "過": 5099,
      "遏": 5100,
      "遐": 5101,
      "道": 5102,
      "達": 5103,
      "違": 5104,
      "遗": 5105,
      "遙": 5106,
      "遜": 5107,
      "遞": 5108,
      "遠": 5109,
      "遣": 5110,
      "遥": 5111,
      "遨": 5112,
      "適": 5113,
      "遭": 5114,
      "遮": 5115,
      "遲": 5116,
      "遵": 5117,
      "遷": 5118,
      "選": 5119,
      "遺": 5120,
      "避": 5121,
      "邀": 5122,
      "邁": 5123,
      "還": 5124,
      "邈": 5125,
      "邊": 5126,
      "邏": 5127,
      "邓": 5128,
      "那": 5129,
      "邦": 5130,
      "邪": 5131,
      "邮": 5132,
      "邻": 5133,
      "郁": 5134,
      "郊": 5135,
      "郎": 5136,
      "郑": 5137,
      "郡": 5138,
      "部": 5139,
      "郫": 5140,
      "郭": 5141,
      "郷": 5142,
      "都": 5143,
      "鄰": 5144,
      "酉": 5145,
      "酌": 5146,
      "配": 5147,
      "酒": 5148,
      "酔": 5149,
      "酚": 5150,
      "酞": 5151,
      "酥": 5152,
      "酪": 5153,
      "酬": 5154,
      "酮": 5155,
      "酰": 5156,
      "酱": 5157,
      "酵": 5158,
      "酶": 5159,
      "酷": 5160,
      "酸": 5161,
      "酿": 5162,
      "醇": 5163,
      "醉": 5164,
      "醋": 5165,
      "醒": 5166,
      "醛": 5167,
      "醫": 5168,
      "醬": 5169,
      "采": 5170,
      "释": 5171,
      "釋": 5172,
      "里": 5173,
      "重": 5174,
      "野": 5175,
      "量": 5176,
      "金": 5177,
      "釜": 5178,
      "針": 5179,
      "鈍": 5180,
      "鈕": 5181,
      "鈾": 5182,
      "鉄": 5183,
      "鉴": 5184,
      "銀": 5185,
      "銅": 5186,
      "銘": 5187,
      "銪": 5188,
      "鋁": 5189,
      "鋒": 5190,
      "鋪": 5191,
      "鋸": 5192,
      "鋼": 5193,
      "錄": 5194,
      "錢": 5195,
      "錬": 5196,
      "錯": 5197,
      "鍵": 5198,
      "鎖": 5199,
      "鏈": 5200,
      "鏡": 5201,
      "鐘": 5202,
      "鐠": 5203,
      "鐵": 5204,
      "鑑": 5205,
      "鑒": 5206,
      "鑞": 5207,
      "鑭": 5208,
      "钇": 5209,
      "针": 5210,
      "钉": 5211,
      "钓": 5212,
      "钗": 5213,
      "钙": 5214,
      "钟": 5215,
      "钠": 5216,
      "钢": 5217,
      "钥": 5218,
      "钦": 5219,
      "钨": 5220,
      "钩": 5221,
      "钮": 5222,
      "钱": 5223,
      "钻": 5224,
      "铁": 5225,
      "铃": 5226,
      "铅": 5227,
      "铛": 5228,
      "铜": 5229,
      "铠": 5230,
      "铭": 5231,
      "铯": 5232,
      "铱": 5233,
      "银": 5234,
      "铸": 5235,
      "铺": 5236,
      "链": 5237,
      "铿": 5238,
      "销": 5239,
      "锁": 5240,
      "锂": 5241,
      "锄": 5242,
      "锅": 5243,
      "锋": 5244,
      "锐": 5245,
      "错": 5246,
      "锡": 5247,
      "锤": 5248,
      "锦": 5249,
      "键": 5250,
      "锵": 5251,
      "锻": 5252,
      "镁": 5253,
      "镂": 5254,
      "镇": 5255,
      "镌": 5256,
      "镖": 5257,
      "镗": 5258,
      "镜": 5259,
      "镥": 5260,
      "镯": 5261,
      "長": 5262,
      "长": 5263,
      "門": 5264,
      "閃": 5265,
      "閉": 5266,
      "開": 5267,
      "閏": 5268,
      "閒": 5269,
      "間": 5270,
      "関": 5271,
      "閱": 5272,
      "闊": 5273,
      "闘": 5274,
      "關": 5275,
      "门": 5276,
      "闪": 5277,
      "闭": 5278,
      "问": 5279,
      "闯": 5280,
      "闰": 5281,
      "闲": 5282,
      "间": 5283,
      "闷": 5284,
      "闹": 5285,
      "闺": 5286,
      "闻": 5287,
      "闽": 5288,
      "闾": 5289,
      "阀": 5290,
      "阁": 5291,
      "阄": 5292,
      "阅": 5293,
      "阉": 5294,
      "阎": 5295,
      "阐": 5296,
      "阑": 5297,
      "阔": 5298,
      "队": 5299,
      "阪": 5300,
      "阱": 5301,
      "防": 5302,
      "阳": 5303,
      "阴": 5304,
      "阵": 5305,
      "阶": 5306,
      "阻": 5307,
      "阿": 5308,
      "陀": 5309,
      "附": 5310,
      "际": 5311,
      "陆": 5312,
      "陇": 5313,
      "陈": 5314,
      "陋": 5315,
      "陌": 5316,
      "降": 5317,
      "限": 5318,
      "陕": 5319,
      "陛": 5320,
      "陡": 5321,
      "院": 5322,
      "陣": 5323,
      "除": 5324,
      "陨": 5325,
      "险": 5326,
      "陪": 5327,
      "陰": 5328,
      "陳": 5329,
      "陵": 5330,
      "陶": 5331,
      "陷": 5332,
      "陸": 5333,
      "険": 5334,
      "陽": 5335,
      "隅": 5336,
      "隆": 5337,
      "隊": 5338,
      "隋": 5339,
      "階": 5340,
      "随": 5341,
      "隐": 5342,
      "隔": 5343,
      "隙": 5344,
      "際": 5345,
      "障": 5346,
      "隧": 5347,
      "隨": 5348,
      "險": 5349,
      "隱": 5350,
      "隶": 5351,
      "隻": 5352,
      "隽": 5353,
      "难": 5354,
      "雁": 5355,
      "雄": 5356,
      "雅": 5357,
      "集": 5358,
      "雇": 5359,
      "雉": 5360,
      "雑": 5361,
      "雕": 5362,
      "雖": 5363,
      "雙": 5364,
      "雜": 5365,
      "雞": 5366,
      "離": 5367,
      "難": 5368,
      "雨": 5369,
      "雪": 5370,
      "雰": 5371,
      "雲": 5372,
      "零": 5373,
      "雷": 5374,
      "雹": 5375,
      "電": 5376,
      "雾": 5377,
      "需": 5378,
      "霁": 5379,
      "霄": 5380,
      "霆": 5381,
      "震": 5382,
      "霍": 5383,
      "霓": 5384,
      "霖": 5385,
      "霜": 5386,
      "霞": 5387,
      "霧": 5388,
      "露": 5389,
      "霸": 5390,
      "靈": 5391,
      "青": 5392,
      "静": 5393,
      "靜": 5394,
      "非": 5395,
      "靠": 5396,
      "靡": 5397,
      "面": 5398,
      "革": 5399,
      "靴": 5400,
      "靶": 5401,
      "鞋": 5402,
      "鞍": 5403,
      "鞠": 5404,
      "鞳": 5405,
      "韌": 5406,
      "韓": 5407,
      "韧": 5408,
      "韩": 5409,
      "音": 5410,
      "韵": 5411,
      "韻": 5412,
      "響": 5413,
      "頁": 5414,
      "頂": 5415,
      "項": 5416,
      "順": 5417,
      "須": 5418,
      "預": 5419,
      "頑": 5420,
      "頓": 5421,
      "領": 5422,
      "頭": 5423,
      "頸": 5424,
      "頻": 5425,
      "頼": 5426,
      "題": 5427,
      "額": 5428,
      "顎": 5429,
      "顏": 5430,
      "顔": 5431,
      "願": 5432,
      "類": 5433,
      "顧": 5434,
      "顯": 5435,
      "页": 5436,
      "顶": 5437,
      "顷": 5438,
      "项": 5439,
      "顺": 5440,
      "须": 5441,
      "顽": 5442,
      "顾": 5443,
      "顿": 5444,
      "颁": 5445,
      "颂": 5446,
      "预": 5447,
      "颅": 5448,
      "领": 5449,
      "颇": 5450,
      "颈": 5451,
      "颊": 5452,
      "颌": 5453,
      "频": 5454,
      "颖": 5455,
      "颗": 5456,
      "题": 5457,
      "颜": 5458,
      "额": 5459,
      "颠": 5460,
      "颤": 5461,
      "風": 5462,
      "颶": 5463,
      "飄": 5464,
      "风": 5465,
      "飘": 5466,
      "飛": 5467,
      "飞": 5468,
      "食": 5469,
      "飯": 5470,
      "飲": 5471,
      "飼": 5472,
      "飽": 5473,
      "飾": 5474,
      "餅": 5475,
      "養": 5476,
      "餐": 5477,
      "餘": 5478,
      "餚": 5479,
      "館": 5480,
      "饋": 5481,
      "饒": 5482,
      "饞": 5483,
      "饥": 5484,
      "饪": 5485,
      "饭": 5486,
      "饮": 5487,
      "饰": 5488,
      "饱": 5489,
      "饲": 5490,
      "饵": 5491,
      "饶": 5492,
      "饼": 5493,
      "饿": 5494,
      "馅": 5495,
      "馆": 5496,
      "馈": 5497,
      "馋": 5498,
      "馍": 5499,
      "馏": 5500,
      "馔": 5501,
      "首": 5502,
      "香": 5503,
      "馥": 5504,
      "馨": 5505,
      "馬": 5506,
      "駁": 5507,
      "駆": 5508,
      "駕": 5509,
      "駛": 5510,
      "駭": 5511,
      "駿": 5512,
      "騎": 5513,
      "験": 5514,
      "騙": 5515,
      "騷": 5516,
      "驅": 5517,
      "驗": 5518,
      "驚": 5519,
      "驟": 5520,
      "马": 5521,
      "驭": 5522,
      "驯": 5523,
      "驰": 5524,
      "驱": 5525,
      "驳": 5526,
      "驶": 5527,
      "驻": 5528,
      "驼": 5529,
      "驾": 5530,
      "骂": 5531,
      "骄": 5532,
      "骇": 5533,
      "骋": 5534,
      "验": 5535,
      "骑": 5536,
      "骗": 5537,
      "骚": 5538,
      "骛": 5539,
      "骡": 5540,
      "骤": 5541,
      "骨": 5542,
      "骰": 5543,
      "骸": 5544,
      "髓": 5545,
      "體": 5546,
      "高": 5547,
      "鬆": 5548,
      "鬓": 5549,
      "鬥": 5550,
      "鬼": 5551,
      "魂": 5552,
      "魄": 5553,
      "魅": 5554,
      "魏": 5555,
      "魔": 5556,
      "魚": 5557,
      "魯": 5558,
      "鮮": 5559,
      "鱼": 5560,
      "鲁": 5561,
      "鲈": 5562,
      "鲜": 5563,
      "鲨": 5564,
      "鲲": 5565,
      "鲷": 5566,
      "鲸": 5567,
      "鳞": 5568,
      "鳥": 5569,
      "鳴": 5570,
      "鴎": 5571,
      "鴛": 5572,
      "鴦": 5573,
      "鵝": 5574,
      "鸝": 5575,
      "鸞": 5576,
      "鸟": 5577,
      "鸡": 5578,
      "鸣": 5579,
      "鸦": 5580,
      "鸭": 5581,
      "鸯": 5582,
      "鸳": 5583,
      "鸽": 5584,
      "鹂": 5585,
      "鹅": 5586,
      "鹏": 5587,
      "鹖": 5588,
      "鹤": 5589,
      "鹫": 5590,
      "鹭": 5591,
      "鹰": 5592,
      "鹿": 5593,
      "麋": 5594,
      "麗": 5595,
      "麦": 5596,
      "麵": 5597,
      "麻": 5598,
      "麼": 5599,
      "麽": 5600,
      "黃": 5601,
      "黄": 5602,
      "黎": 5603,
      "黏": 5604,
      "黑": 5605,
      "黒": 5606,
      "默": 5607,
      "黛": 5608,
      "點": 5609,
      "黨": 5610,
      "鼎": 5611,
      "鼓": 5612,
      "鼠": 5613,
      "鼬": 5614,
      "鼻": 5615,
      "齊": 5616,
      "齐": 5617,
      "齡": 5618,
      "齿": 5619,
      "龄": 5620,
      "龍": 5621,
      "龙": 5622,
      "龟": 5623,
      "ꓘ": 5624,
      "ꓛ": 5625,
      "ꓭ": 5626,
      "ꓶ": 5627,
      "가": 5628,
      "각": 5629,
      "간": 5630,
      "감": 5631,
      "갑": 5632,
      "개": 5633,
      "검": 5634,
      "것": 5635,
      "게": 5636,
      "견": 5637,
      "경": 5638,
      "고": 5639,
      "공": 5640,
      "관": 5641,
      "구": 5642,
      "국": 5643,
      "권": 5644,
      "규": 5645,
      "그": 5646,
      "근": 5647,
      "금": 5648,
      "기": 5649,
      "길": 5650,
      "까": 5651,
      "끼": 5652,
      "나": 5653,
      "넘": 5654,
      "네": 5655,
      "년": 5656,
      "녕": 5657,
      "느": 5658,
      "는": 5659,
      "능": 5660,
      "니": 5661,
      "닙": 5662,
      "닝": 5663,
      "다": 5664,
      "달": 5665,
      "대": 5666,
      "데": 5667,
      "도": 5668,
      "동": 5669,
      "되": 5670,
      "된": 5671,
      "든": 5672,
      "들": 5673,
      "등": 5674,
      "딥": 5675,
      "때": 5676,
      "떤": 5677,
      "라": 5678,
      "랍": 5679,
      "러": 5680,
      "렇": 5681,
      "려": 5682,
      "로": 5683,
      "류": 5684,
      "르": 5685,
      "를": 5686,
      "리": 5687,
      "립": 5688,
      "마": 5689,
      "만": 5690,
      "매": 5691,
      "머": 5692,
      "며": 5693,
      "면": 5694,
      "명": 5695,
      "모": 5696,
      "목": 5697,
      "못": 5698,
      "무": 5699,
      "문": 5700,
      "물": 5701,
      "므": 5702,
      "미": 5703,
      "민": 5704,
      "및": 5705,
      "바": 5706,
      "반": 5707,
      "발": 5708,
      "번": 5709,
      "변": 5710,
      "보": 5711,
      "부": 5712,
      "분": 5713,
      "비": 5714,
      "사": 5715,
      "색": 5716,
      "생": 5717,
      "서": 5718,
      "선": 5719,
      "설": 5720,
      "성": 5721,
      "세": 5722,
      "소": 5723,
      "속": 5724,
      "수": 5725,
      "술": 5726,
      "스": 5727,
      "습": 5728,
      "시": 5729,
      "신": 5730,
      "실": 5731,
      "싶": 5732,
      "아": 5733,
      "안": 5734,
      "않": 5735,
      "알": 5736,
      "액": 5737,
      "야": 5738,
      "약": 5739,
      "양": 5740,
      "어": 5741,
      "얼": 5742,
      "없": 5743,
      "었": 5744,
      "에": 5745,
      "여": 5746,
      "역": 5747,
      "연": 5748,
      "영": 5749,
      "와": 5750,
      "요": 5751,
      "우": 5752,
      "움": 5753,
      "워": 5754,
      "월": 5755,
      "웹": 5756,
      "유": 5757,
      "육": 5758,
      "으": 5759,
      "은": 5760,
      "을": 5761,
      "의": 5762,
      "이": 5763,
      "인": 5764,
      "일": 5765,
      "임": 5766,
      "입": 5767,
      "있": 5768,
      "자": 5769,
      "잘": 5770,
      "재": 5771,
      "저": 5772,
      "적": 5773,
      "정": 5774,
      "제": 5775,
      "져": 5776,
      "조": 5777,
      "존": 5778,
      "준": 5779,
      "중": 5780,
      "줘": 5781,
      "즈": 5782,
      "즉": 5783,
      "증": 5784,
      "지": 5785,
      "참": 5786,
      "채": 5787,
      "처": 5788,
      "철": 5789,
      "체": 5790,
      "총": 5791,
      "최": 5792,
      "축": 5793,
      "치": 5794,
      "친": 5795,
      "크": 5796,
      "터": 5797,
      "테": 5798,
      "통": 5799,
      "트": 5800,
      "틱": 5801,
      "판": 5802,
      "포": 5803,
      "표": 5804,
      "품": 5805,
      "하": 5806,
      "학": 5807,
      "한": 5808,
      "할": 5809,
      "함": 5810,
      "합": 5811,
      "해": 5812,
      "했": 5813,
      "행": 5814,
      "현": 5815,
      "홍": 5816,
      "확": 5817,
      "활": 5818,
      "회": 5819,
      "히": 5820,
      "": 5821,
      "ﬁ": 5822,
      "︎": 5823,
      "️": 5824,
      "︱": 5825,
      "︵": 5826,
      "﻿": 5827,
      "！": 5828,
      "％": 5829,
      "（": 5830,
      "）": 5831,
      "＊": 5832,
      "＋": 5833,
      "，": 5834,
      "－": 5835,
      "．": 5836,
      "０": 5837,
      "１": 5838,
      "２": 5839,
      "３": 5840,
      "４": 5841,
      "５": 5842,
      "６": 5843,
      "７": 5844,
      "８": 5845,
      "９": 5846,
      "：": 5847,
      "；": 5848,
      "＜": 5849,
      "＝": 5850,
      "＞": 5851,
      "？": 5852,
      "Ａ": 5853,
      "Ｉ": 5854,
      "ａ": 5855,
      "ｂ": 5856,
      "ｃ": 5857,
      "～": 5858,
      "｡": 5859,
      "￮": 5860,
      "𝐥": 5861,
      "𝐦": 5862,
      "𝐨": 5863,
      "𝐿": 5864,
      "𝑒": 5865,
      "𝑓": 5866,
      "𝑘": 5867,
      "𝑟": 5868,
      "𝑧": 5869,
      "𝒞": 5870,
      "𝒶": 5871,
      "𝓃": 5872,
      "𝔻": 5873,
      "𝔼": 5874,
      "𝔽": 5875,
      "𝔾": 5876,
      "𝕀": 5877,
      "𝕁": 5878,
      "𝕋": 5879,
      "𝕠": 5880,
      "𝕭": 5881,
      "𝖆": 5882,
      "𝗘": 5883,
      "𝗮": 5884,
      "𝗯": 5885,
      "𝗰": 5886,
      "𝗱": 5887,
      "𝗲": 5888,
      "𝗴": 5889,
      "𝗶": 5890,
      "𝗷": 5891,
      "𝗹": 5892,
      "𝗺": 5893,
      "𝗻": 5894,
      "𝗼": 5895,
      "𝗽": 5896,
      "𝗿": 5897,
      "𝘀": 5898,
      "𝘁": 5899,
      "𝘂": 5900,
      "𝘃": 5901,
      "𝘅": 5902,
      "𝘆": 5903,
      "𝘋": 5904,
      "𝘕": 5905,
      "𝘖": 5906,
      "𝘢": 5907,
      "𝘤": 5908,
      "𝘪": 5909,
      "𝘭": 5910,
      "𝘮": 5911,
      "𝘯": 5912,
      "𝘰": 5913,
      "𝘱": 5914,
      "𝘴": 5915,
      "𝘵": 5916,
      "𝘺": 5917,
      "𝘼": 5918,
      "𝙇": 5919,
      "𝙖": 5920,
      "𝙘": 5921,
      "𝙙": 5922,
      "𝙚": 5923,
      "𝙛": 5924,
      "𝙜": 5925,
      "𝙝": 5926,
      "𝙞": 5927,
      "𝙟": 5928,
      "𝙡": 5929,
      "𝙤": 5930,
      "𝙥": 5931,
      "𝙦": 5932,
      "𝙧": 5933,
      "𝙨": 5934,
      "𝙩": 5935,
      "𝙪": 5936,
      "𝙮": 5937,
      "𝛽": 5938,
      "𝟎": 5939,
      "𝟏": 5940,
      "𝟐": 5941,
      "𝟑": 5942,
      "𝟔": 5943,
      "𝟕": 5944,
      "𝟭": 5945,
      "𝟮": 5946,
      "𝟯": 5947,
      "𝟰": 5948,
      "𝟱": 5949,
      "🀄": 5950,
      "🃏": 5951,
      "🅰": 5952,
      "🅱": 5953,
      "🅾": 5954,
      "🅿": 5955,
      "🆎": 5956,
      "🆑": 5957,
      "🆒": 5958,
      "🆓": 5959,
      "🆔": 5960,
      "🆕": 5961,
      "🆖": 5962,
      "🆗": 5963,
      "🆘": 5964,
      "🆙": 5965,
      "🆚": 5966,
      "🇦": 5967,
      "🇧": 5968,
      "🇨": 5969,
      "🇩": 5970,
      "🇪": 5971,
      "🇬": 5972,
      "🇭": 5973,
      "🇮": 5974,
      "🇯": 5975,
      "🇰": 5976,
      "🇱": 5977,
      "🇲": 5978,
      "🇳": 5979,
      "🇴": 5980,
      "🇵": 5981,
      "🇷": 5982,
      "🇸": 5983,
      "🇹": 5984,
      "🇺": 5985,
      "🇻": 5986,
      "🇽": 5987,
      "🇾": 5988,
      "🈁": 5989,
      "🈂": 5990,
      "🈚": 5991,
      "🈯": 5992,
      "🈲": 5993,
      "🈳": 5994,
      "🈴": 5995,
      "🈵": 5996,
      "🈶": 5997,
      "🈷": 5998,
      "🈸": 5999,
      "🈹": 6000,
      "🈺": 6001,
      "🉐": 6002,
      "🉑": 6003,
      "🌀": 6004,
      "🌁": 6005,
      "🌂": 6006,
      "🌃": 6007,
      "🌄": 6008,
      "🌅": 6009,
      "🌆": 6010,
      "🌇": 6011,
      "🌈": 6012,
      "🌉": 6013,
      "🌊": 6014,
      "🌋": 6015,
      "🌌": 6016,
      "🌍": 6017,
      "🌎": 6018,
      "🌏": 6019,
      "🌐": 6020,
      "🌑": 6021,
      "🌒": 6022,
      "🌓": 6023,
      "🌔": 6024,
      "🌕": 6025,
      "🌖": 6026,
      "🌗": 6027,
      "🌘": 6028,
      "🌙": 6029,
      "🌚": 6030,
      "🌛": 6031,
      "🌜": 6032,
      "🌝": 6033,
      "🌞": 6034,
      "🌟": 6035,
      "🌠": 6036,
      "🌡": 6037,
      "🌤": 6038,
      "🌥": 6039,
      "🌦": 6040,
      "🌧": 6041,
      "🌨": 6042,
      "🌩": 6043,
      "🌪": 6044,
      "🌫": 6045,
      "🌬": 6046,
      "🌭": 6047,
      "🌮": 6048,
      "🌯": 6049,
      "🌰": 6050,
      "🌱": 6051,
      "🌲": 6052,
      "🌳": 6053,
      "🌴": 6054,
      "🌵": 6055,
      "🌶": 6056,
      "🌷": 6057,
      "🌸": 6058,
      "🌹": 6059,
      "🌺": 6060,
      "🌻": 6061,
      "🌼": 6062,
      "🌽": 6063,
      "🌾": 6064,
      "🌿": 6065,
      "🍀": 6066,
      "🍁": 6067,
      "🍂": 6068,
      "🍃": 6069,
      "🍄": 6070,
      "🍅": 6071,
      "🍆": 6072,
      "🍇": 6073,
      "🍈": 6074,
      "🍉": 6075,
      "🍊": 6076,
      "🍋": 6077,
      "🍌": 6078,
      "🍍": 6079,
      "🍎": 6080,
      "🍏": 6081,
      "🍐": 6082,
      "🍑": 6083,
      "🍒": 6084,
      "🍓": 6085,
      "🍔": 6086,
      "🍕": 6087,
      "🍖": 6088,
      "🍗": 6089,
      "🍘": 6090,
      "🍙": 6091,
      "🍚": 6092,
      "🍛": 6093,
      "🍜": 6094,
      "🍝": 6095,
      "🍞": 6096,
      "🍟": 6097,
      "🍠": 6098,
      "🍡": 6099,
      "🍢": 6100,
      "🍣": 6101,
      "🍤": 6102,
      "🍥": 6103,
      "🍦": 6104,
      "🍧": 6105,
      "🍨": 6106,
      "🍩": 6107,
      "🍪": 6108,
      "🍫": 6109,
      "🍬": 6110,
      "🍭": 6111,
      "🍮": 6112,
      "🍯": 6113,
      "🍰": 6114,
      "🍱": 6115,
      "🍲": 6116,
      "🍳": 6117,
      "🍴": 6118,
      "🍵": 6119,
      "🍶": 6120,
      "🍷": 6121,
      "🍸": 6122,
      "🍹": 6123,
      "🍺": 6124,
      "🍻": 6125,
      "🍼": 6126,
      "🍽": 6127,
      "🍾": 6128,
      "🍿": 6129,
      "🎀": 6130,
      "🎁": 6131,
      "🎂": 6132,
      "🎃": 6133,
      "🎄": 6134,
      "🎅": 6135,
      "🎆": 6136,
      "🎇": 6137,
      "🎈": 6138,
      "🎉": 6139,
      "🎊": 6140,
      "🎋": 6141,
      "🎍": 6142,
      "🎎": 6143,
      "🎏": 6144,
      "🎐": 6145,
      "🎑": 6146,
      "🎒": 6147,
      "🎓": 6148,
      "🎖": 6149,
      "🎗": 6150,
      "🎙": 6151,
      "🎚": 6152,
      "🎛": 6153,
      "🎞": 6154,
      "🎟": 6155,
      "🎠": 6156,
      "🎡": 6157,
      "🎢": 6158,
      "🎣": 6159,
      "🎤": 6160,
      "🎥": 6161,
      "🎦": 6162,
      "🎧": 6163,
      "🎨": 6164,
      "🎩": 6165,
      "🎪": 6166,
      "🎫": 6167,
      "🎬": 6168,
      "🎭": 6169,
      "🎮": 6170,
      "🎯": 6171,
      "🎰": 6172,
      "🎱": 6173,
      "🎲": 6174,
      "🎳": 6175,
      "🎴": 6176,
      "🎵": 6177,
      "🎶": 6178,
      "🎷": 6179,
      "🎸": 6180,
      "🎹": 6181,
      "🎺": 6182,
      "🎻": 6183,
      "🎼": 6184,
      "🎽": 6185,
      "🎾": 6186,
      "🎿": 6187,
      "🏀": 6188,
      "🏂": 6189,
      "🏃": 6190,
      "🏄": 6191,
      "🏅": 6192,
      "🏆": 6193,
      "🏇": 6194,
      "🏈": 6195,
      "🏉": 6196,
      "🏊": 6197,
      "🏋": 6198,
      "🏌": 6199,
      "🏍": 6200,
      "🏎": 6201,
      "🏏": 6202,
      "🏐": 6203,
      "🏑": 6204,
      "🏒": 6205,
      "🏓": 6206,
      "🏔": 6207,
      "🏕": 6208,
      "🏖": 6209,
      "🏗": 6210,
      "🏘": 6211,
      "🏙": 6212,
      "🏚": 6213,
      "🏛": 6214,
      "🏜": 6215,
      "🏝": 6216,
      "🏞": 6217,
      "🏟": 6218,
      "🏠": 6219,
      "🏡": 6220,
      "🏢": 6221,
      "🏣": 6222,
      "🏤": 6223,
      "🏥": 6224,
      "🏦": 6225,
      "🏧": 6226,
      "🏨": 6227,
      "🏩": 6228,
      "🏪": 6229,
      "🏫": 6230,
      "🏬": 6231,
      "🏭": 6232,
      "🏮": 6233,
      "🏯": 6234,
      "🏰": 6235,
      "🏵": 6236,
      "🏷": 6237,
      "🏸": 6238,
      "🏹": 6239,
      "🏺": 6240,
      "🏻": 6241,
      "🏼": 6242,
      "🏽": 6243,
      "🏾": 6244,
      "🐀": 6245,
      "🐁": 6246,
      "🐂": 6247,
      "🐃": 6248,
      "🐄": 6249,
      "🐅": 6250,
      "🐆": 6251,
      "🐇": 6252,
      "🐈": 6253,
      "🐉": 6254,
      "🐊": 6255,
      "🐋": 6256,
      "🐌": 6257,
      "🐍": 6258,
      "🐎": 6259,
      "🐏": 6260,
      "🐐": 6261,
      "🐑": 6262,
      "🐒": 6263,
      "🐓": 6264,
      "🐔": 6265,
      "🐕": 6266,
      "🐖": 6267,
      "🐗": 6268,
      "🐘": 6269,
      "🐙": 6270,
      "🐚": 6271,
      "🐛": 6272,
      "🐜": 6273,
      "🐝": 6274,
      "🐞": 6275,
      "🐟": 6276,
      "🐠": 6277,
      "🐡": 6278,
      "🐢": 6279,
      "🐣": 6280,
      "🐤": 6281,
      "🐥": 6282,
      "🐦": 6283,
      "🐧": 6284,
      "🐨": 6285,
      "🐩": 6286,
      "🐪": 6287,
      "🐫": 6288,
      "🐬": 6289,
      "🐭": 6290,
      "🐮": 6291,
      "🐯": 6292,
      "🐰": 6293,
      "🐱": 6294,
      "🐲": 6295,
      "🐳": 6296,
      "🐴": 6297,
      "🐵": 6298,
      "🐶": 6299,
      "🐷": 6300,
      "🐸": 6301,
      "🐹": 6302,
      "🐺": 6303,
      "🐻": 6304,
      "🐼": 6305,
      "🐽": 6306,
      "🐾": 6307,
      "🐿": 6308,
      "👀": 6309,
      "👁": 6310,
      "👂": 6311,
      "👃": 6312,
      "👄": 6313,
      "👅": 6314,
      "👆": 6315,
      "👇": 6316,
      "👈": 6317,
      "👉": 6318,
      "👊": 6319,
      "👋": 6320,
      "👌": 6321,
      "👍": 6322,
      "👎": 6323,
      "👏": 6324,
      "👐": 6325,
      "👑": 6326,
      "👒": 6327,
      "👓": 6328,
      "👔": 6329,
      "👕": 6330,
      "👖": 6331,
      "👗": 6332,
      "👘": 6333,
      "👙": 6334,
      "👚": 6335,
      "👛": 6336,
      "👜": 6337,
      "👝": 6338,
      "👞": 6339,
      "👟": 6340,
      "👠": 6341,
      "👡": 6342,
      "👢": 6343,
      "👣": 6344,
      "👤": 6345,
      "👥": 6346,
      "👦": 6347,
      "👧": 6348,
      "👨": 6349,
      "👩": 6350,
      "👪": 6351,
      "👫": 6352,
      "👬": 6353,
      "👭": 6354,
      "👮": 6355,
      "👯": 6356,
      "👰": 6357,
      "👱": 6358,
      "👲": 6359,
      "👳": 6360,
      "👴": 6361,
      "👵": 6362,
      "👶": 6363,
      "👷": 6364,
      "👸": 6365,
      "👹": 6366,
      "👺": 6367,
      "👻": 6368,
      "👼": 6369,
      "👽": 6370,
      "👾": 6371,
      "👿": 6372,
      "💀": 6373,
      "💁": 6374,
      "💂": 6375,
      "💃": 6376,
      "💄": 6377,
      "💅": 6378,
      "💆": 6379,
      "💇": 6380,
      "💈": 6381,
      "💉": 6382,
      "💊": 6383,
      "💋": 6384,
      "💌": 6385,
      "💍": 6386,
      "💎": 6387,
      "💏": 6388,
      "💐": 6389,
      "💑": 6390,
      "💒": 6391,
      "💓": 6392,
      "💔": 6393,
      "💕": 6394,
      "💖": 6395,
      "💗": 6396,
      "💘": 6397,
      "💙": 6398,
      "💚": 6399,
      "💛": 6400,
      "💜": 6401,
      "💝": 6402,
      "💞": 6403,
      "💟": 6404,
      "💠": 6405,
      "💡": 6406,
      "💢": 6407,
      "💣": 6408,
      "💤": 6409,
      "💥": 6410,
      "💦": 6411,
      "💧": 6412,
      "💨": 6413,
      "💩": 6414,
      "💪": 6415,
      "💫": 6416,
      "💬": 6417,
      "💭": 6418,
      "💮": 6419,
      "💯": 6420,
      "💰": 6421,
      "💱": 6422,
      "💲": 6423,
      "💳": 6424,
      "💴": 6425,
      "💵": 6426,
      "💶": 6427,
      "💷": 6428,
      "💸": 6429,
      "💹": 6430,
      "💺": 6431,
      "💻": 6432,
      "💼": 6433,
      "💽": 6434,
      "💾": 6435,
      "💿": 6436,
      "📀": 6437,
      "📁": 6438,
      "📂": 6439,
      "📃": 6440,
      "📄": 6441,
      "📅": 6442,
      "📆": 6443,
      "📇": 6444,
      "📈": 6445,
      "📉": 6446,
      "📊": 6447,
      "📋": 6448,
      "📌": 6449,
      "📍": 6450,
      "📎": 6451,
      "📏": 6452,
      "📐": 6453,
      "📑": 6454,
      "📒": 6455,
      "📓": 6456,
      "📔": 6457,
      "📕": 6458,
      "📖": 6459,
      "📗": 6460,
      "📘": 6461,
      "📙": 6462,
      "📚": 6463,
      "📛": 6464,
      "📜": 6465,
      "📝": 6466,
      "📞": 6467,
      "📟": 6468,
      "📠": 6469,
      "📡": 6470,
      "📢": 6471,
      "📣": 6472,
      "📤": 6473,
      "📥": 6474,
      "📦": 6475,
      "📧": 6476,
      "📨": 6477,
      "📩": 6478,
      "📪": 6479,
      "📫": 6480,
      "📬": 6481,
      "📭": 6482,
      "📮": 6483,
      "📯": 6484,
      "📰": 6485,
      "📱": 6486,
      "📲": 6487,
      "📳": 6488,
      "📴": 6489,
      "📵": 6490,
      "📶": 6491,
      "📷": 6492,
      "📸": 6493,
      "📹": 6494,
      "📺": 6495,
      "📻": 6496,
      "📼": 6497,
      "📽": 6498,
      "📿": 6499,
      "🔀": 6500,
      "🔁": 6501,
      "🔂": 6502,
      "🔃": 6503,
      "🔄": 6504,
      "🔅": 6505,
      "🔆": 6506,
      "🔇": 6507,
      "🔈": 6508,
      "🔉": 6509,
      "🔊": 6510,
      "🔋": 6511,
      "🔌": 6512,
      "🔍": 6513,
      "🔎": 6514,
      "🔏": 6515,
      "🔐": 6516,
      "🔑": 6517,
      "🔒": 6518,
      "🔓": 6519,
      "🔔": 6520,
      "🔕": 6521,
      "🔖": 6522,
      "🔗": 6523,
      "🔘": 6524,
      "🔙": 6525,
      "🔚": 6526,
      "🔛": 6527,
      "🔜": 6528,
      "🔝": 6529,
      "🔞": 6530,
      "🔟": 6531,
      "🔠": 6532,
      "🔡": 6533,
      "🔢": 6534,
      "🔣": 6535,
      "🔤": 6536,
      "🔥": 6537,
      "🔦": 6538,
      "🔧": 6539,
      "🔨": 6540,
      "🔩": 6541,
      "🔪": 6542,
      "🔫": 6543,
      "🔬": 6544,
      "🔭": 6545,
      "🔮": 6546,
      "🔯": 6547,
      "🔰": 6548,
      "🔱": 6549,
      "🔲": 6550,
      "🔳": 6551,
      "🔴": 6552,
      "🔵": 6553,
      "🔶": 6554,
      "🔷": 6555,
      "🔸": 6556,
      "🔹": 6557,
      "🔺": 6558,
      "🔻": 6559,
      "🔼": 6560,
      "🔽": 6561,
      "🕉": 6562,
      "🕊": 6563,
      "🕋": 6564,
      "🕌": 6565,
      "🕍": 6566,
      "🕎": 6567,
      "🕐": 6568,
      "🕑": 6569,
      "🕒": 6570,
      "🕓": 6571,
      "🕔": 6572,
      "🕕": 6573,
      "🕖": 6574,
      "🕗": 6575,
      "🕘": 6576,
      "🕙": 6577,
      "🕚": 6578,
      "🕛": 6579,
      "🕜": 6580,
      "🕝": 6581,
      "🕞": 6582,
      "🕟": 6583,
      "🕠": 6584,
      "🕡": 6585,
      "🕢": 6586,
      "🕣": 6587,
      "🕤": 6588,
      "🕥": 6589,
      "🕦": 6590,
      "🕧": 6591,
      "🕯": 6592,
      "🕰": 6593,
      "🕳": 6594,
      "🕴": 6595,
      "🕵": 6596,
      "🕶": 6597,
      "🕷": 6598,
      "🕸": 6599,
      "🕹": 6600,
      "🕺": 6601,
      "🖇": 6602,
      "🖊": 6603,
      "🖋": 6604,
      "🖌": 6605,
      "🖍": 6606,
      "🖐": 6607,
      "🖕": 6608,
      "🖖": 6609,
      "🖤": 6610,
      "🖥": 6611,
      "🖨": 6612,
      "🖱": 6613,
      "🖲": 6614,
      "🖼": 6615,
      "🗂": 6616,
      "🗃": 6617,
      "🗄": 6618,
      "🗑": 6619,
      "🗒": 6620,
      "🗓": 6621,
      "🗜": 6622,
      "🗝": 6623,
      "🗞": 6624,
      "🗡": 6625,
      "🗣": 6626,
      "🗨": 6627,
      "🗯": 6628,
      "🗳": 6629,
      "🗺": 6630,
      "🗻": 6631,
      "🗼": 6632,
      "🗽": 6633,
      "🗾": 6634,
      "🗿": 6635,
      "😀": 6636,
      "😁": 6637,
      "😂": 6638,
      "😃": 6639,
      "😄": 6640,
      "😅": 6641,
      "😆": 6642,
      "😇": 6643,
      "😈": 6644,
      "😉": 6645,
      "😊": 6646,
      "😋": 6647,
      "😌": 6648,
      "😍": 6649,
      "😎": 6650,
      "😏": 6651,
      "😐": 6652,
      "😑": 6653,
      "😒": 6654,
      "😓": 6655,
      "😔": 6656,
      "😕": 6657,
      "😖": 6658,
      "😗": 6659,
      "😘": 6660,
      "😙": 6661,
      "😚": 6662,
      "😛": 6663,
      "😜": 6664,
      "😝": 6665,
      "😞": 6666,
      "😟": 6667,
      "😠": 6668,
      "😡": 6669,
      "😢": 6670,
      "😣": 6671,
      "😤": 6672,
      "😥": 6673,
      "😦": 6674,
      "😧": 6675,
      "😨": 6676,
      "😩": 6677,
      "😪": 6678,
      "😫": 6679,
      "😬": 6680,
      "😭": 6681,
      "😮": 6682,
      "😯": 6683,
      "😰": 6684,
      "😱": 6685,
      "😲": 6686,
      "😳": 6687,
      "😴": 6688,
      "😵": 6689,
      "😶": 6690,
      "😷": 6691,
      "😸": 6692,
      "😹": 6693,
      "😺": 6694,
      "😻": 6695,
      "😼": 6696,
      "😽": 6697,
      "😾": 6698,
      "😿": 6699,
      "🙀": 6700,
      "🙁": 6701,
      "🙂": 6702,
      "🙃": 6703,
      "🙄": 6704,
      "🙅": 6705,
      "🙆": 6706,
      "🙇": 6707,
      "🙈": 6708,
      "🙉": 6709,
      "🙊": 6710,
      "🙋": 6711,
      "🙌": 6712,
      "🙍": 6713,
      "🙎": 6714,
      "🙏": 6715,
      "🚀": 6716,
      "🚁": 6717,
      "🚂": 6718,
      "🚃": 6719,
      "🚄": 6720,
      "🚅": 6721,
      "🚆": 6722,
      "🚇": 6723,
      "🚈": 6724,
      "🚉": 6725,
      "🚊": 6726,
      "🚋": 6727,
      "🚌": 6728,
      "🚍": 6729,
      "🚎": 6730,
      "🚏": 6731,
      "🚐": 6732,
      "🚑": 6733,
      "🚒": 6734,
      "🚓": 6735,
      "🚔": 6736,
      "🚕": 6737,
      "🚖": 6738,
      "🚗": 6739,
      "🚘": 6740,
      "🚙": 6741,
      "🚚": 6742,
      "🚛": 6743,
      "🚜": 6744,
      "🚝": 6745,
      "🚞": 6746,
      "🚟": 6747,
      "🚠": 6748,
      "🚡": 6749,
      "🚢": 6750,
      "🚣": 6751,
      "🚤": 6752,
      "🚥": 6753,
      "🚦": 6754,
      "🚧": 6755,
      "🚨": 6756,
      "🚪": 6757,
      "🚫": 6758,
      "🚬": 6759,
      "🚭": 6760,
      "🚮": 6761,
      "🚯": 6762,
      "🚰": 6763,
      "🚱": 6764,
      "🚲": 6765,
      "🚳": 6766,
      "🚴": 6767,
      "🚵": 6768,
      "🚶": 6769,
      "🚷": 6770,
      "🚸": 6771,
      "🚹": 6772,
      "🚺": 6773,
      "🚻": 6774,
      "🚼": 6775,
      "🚽": 6776,
      "🚾": 6777,
      "🚿": 6778,
      "🛀": 6779,
      "🛁": 6780,
      "🛂": 6781,
      "🛃": 6782,
      "🛄": 6783,
      "🛅": 6784,
      "🛋": 6785,
      "🛌": 6786,
      "🛍": 6787,
      "🛎": 6788,
      "🛏": 6789,
      "🛐": 6790,
      "🛑": 6791,
      "🛒": 6792,
      "🛕": 6793,
      "🛖": 6794,
      "🛗": 6795,
      "🛝": 6796,
      "🛞": 6797,
      "🛟": 6798,
      "🛠": 6799,
      "🛡": 6800,
      "🛢": 6801,
      "🛣": 6802,
      "🛤": 6803,
      "🛥": 6804,
      "🛩": 6805,
      "🛫": 6806,
      "🛬": 6807,
      "🛰": 6808,
      "🛳": 6809,
      "🛴": 6810,
      "🛵": 6811,
      "🛶": 6812,
      "🛷": 6813,
      "🛸": 6814,
      "🛹": 6815,
      "🛺": 6816,
      "🛻": 6817,
      "🛼": 6818,
      "🟠": 6819,
      "🟡": 6820,
      "🟢": 6821,
      "🟣": 6822,
      "🟤": 6823,
      "🟥": 6824,
      "🟦": 6825,
      "🟧": 6826,
      "🟨": 6827,
      "🟩": 6828,
      "🟪": 6829,
      "🟫": 6830,
      "🟰": 6831,
      "🡡": 6832,
      "🡣": 6833,
      "🡤": 6834,
      "🡥": 6835,
      "🡦": 6836,
      "🡧": 6837,
      "🤌": 6838,
      "🤍": 6839,
      "🤎": 6840,
      "🤏": 6841,
      "🤐": 6842,
      "🤑": 6843,
      "🤒": 6844,
      "🤓": 6845,
      "🤔": 6846,
      "🤕": 6847,
      "🤖": 6848,
      "🤗": 6849,
      "🤘": 6850,
      "🤙": 6851,
      "🤚": 6852,
      "🤛": 6853,
      "🤜": 6854,
      "🤝": 6855,
      "🤞": 6856,
      "🤟": 6857,
      "🤠": 6858,
      "🤡": 6859,
      "🤢": 6860,
      "🤣": 6861,
      "🤤": 6862,
      "🤥": 6863,
      "🤦": 6864,
      "🤧": 6865,
      "🤨": 6866,
      "🤩": 6867,
      "🤪": 6868,
      "🤫": 6869,
      "🤬": 6870,
      "🤭": 6871,
      "🤮": 6872,
      "🤯": 6873,
      "🤰": 6874,
      "🤱": 6875,
      "🤲": 6876,
      "🤳": 6877,
      "🤴": 6878,
      "🤵": 6879,
      "🤶": 6880,
      "🤷": 6881,
      "🤸": 6882,
      "🤹": 6883,
      "🤺": 6884,
      "🤼": 6885,
      "🤽": 6886,
      "🤾": 6887,
      "🤿": 6888,
      "🥀": 6889,
      "🥁": 6890,
      "🥂": 6891,
      "🥃": 6892,
      "🥄": 6893,
      "🥅": 6894,
      "🥇": 6895,
      "🥈": 6896,
      "🥉": 6897,
      "🥊": 6898,
      "🥋": 6899,
      "🥌": 6900,
      "🥍": 6901,
      "🥎": 6902,
      "🥏": 6903,
      "🥐": 6904,
      "🥑": 6905,
      "🥒": 6906,
      "🥓": 6907,
      "🥔": 6908,
      "🥕": 6909,
      "🥖": 6910,
      "🥗": 6911,
      "🥘": 6912,
      "🥙": 6913,
      "🥚": 6914,
      "🥛": 6915,
      "🥜": 6916,
      "🥝": 6917,
      "🥞": 6918,
      "🥟": 6919,
      "🥠": 6920,
      "🥡": 6921,
      "🥢": 6922,
      "🥣": 6923,
      "🥤": 6924,
      "🥥": 6925,
      "🥦": 6926,
      "🥧": 6927,
      "🥨": 6928,
      "🥩": 6929,
      "🥪": 6930,
      "🥫": 6931,
      "🥬": 6932,
      "🥭": 6933,
      "🥮": 6934,
      "🥯": 6935,
      "🥰": 6936,
      "🥱": 6937,
      "🥲": 6938,
      "🥳": 6939,
      "🥴": 6940,
      "🥵": 6941,
      "🥶": 6942,
      "🥷": 6943,
      "🥸": 6944,
      "🥹": 6945,
      "🥺": 6946,
      "🥻": 6947,
      "🥼": 6948,
      "🥽": 6949,
      "🥾": 6950,
      "🥿": 6951,
      "🦀": 6952,
      "🦁": 6953,
      "🦂": 6954,
      "🦃": 6955,
      "🦄": 6956,
      "🦅": 6957,
      "🦆": 6958,
      "🦇": 6959,
      "🦈": 6960,
      "🦉": 6961,
      "🦊": 6962,
      "🦋": 6963,
      "🦌": 6964,
      "🦍": 6965,
      "🦎": 6966,
      "🦏": 6967,
      "🦐": 6968,
      "🦑": 6969,
      "🦒": 6970,
      "🦓": 6971,
      "🦔": 6972,
      "🦕": 6973,
      "🦖": 6974,
      "🦗": 6975,
      "🦘": 6976,
      "🦙": 6977,
      "🦚": 6978,
      "🦛": 6979,
      "🦜": 6980,
      "🦝": 6981,
      "🦞": 6982,
      "🦟": 6983,
      "🦠": 6984,
      "🦡": 6985,
      "🦢": 6986,
      "🦣": 6987,
      "🦤": 6988,
      "🦥": 6989,
      "🦦": 6990,
      "🦧": 6991,
      "🦨": 6992,
      "🦩": 6993,
      "🦪": 6994,
      "🦫": 6995,
      "🦬": 6996,
      "🦭": 6997,
      "🦮": 6998,
      "🦯": 6999,
      "🦰": 7000,
      "🦱": 7001,
      "🦲": 7002,
      "🦳": 7003,
      "🦴": 7004,
      "🦵": 7005,
      "🦶": 7006,
      "🦷": 7007,
      "🦸": 7008,
      "🦹": 7009,
      "🦺": 7010,
      "🦻": 7011,
      "🦼": 7012,
      "🦽": 7013,
      "🦾": 7014,
      "🦿": 7015,
      "🧀": 7016,
      "🧁": 7017,
      "🧂": 7018,
      "🧃": 7019,
      "🧄": 7020,
      "🧅": 7021,
      "🧆": 7022,
      "🧇": 7023,
      "🧈": 7024,
      "🧉": 7025,
      "🧊": 7026,
      "🧋": 7027,
      "🧌": 7028,
      "🧍": 7029,
      "🧎": 7030,
      "🧏": 7031,
      "🧐": 7032,
      "🧑": 7033,
      "🧒": 7034,
      "🧓": 7035,
      "🧔": 7036,
      "🧕": 7037,
      "🧖": 7038,
      "🧗": 7039,
      "🧘": 7040,
      "🧙": 7041,
      "🧚": 7042,
      "🧛": 7043,
      "🧜": 7044,
      "🧝": 7045,
      "🧞": 7046,
      "🧟": 7047,
      "🧠": 7048,
      "🧡": 7049,
      "🧢": 7050,
      "🧣": 7051,
      "🧤": 7052,
      "🧥": 7053,
      "🧦": 7054,
      "🧧": 7055,
      "🧨": 7056,
      "🧩": 7057,
      "🧪": 7058,
      "🧫": 7059,
      "🧬": 7060,
      "🧭": 7061,
      "🧮": 7062,
      "🧯": 7063,
      "🧰": 7064,
      "🧱": 7065,
      "🧲": 7066,
      "🧳": 7067,
      "🧴": 7068,
      "🧵": 7069,
      "🧶": 7070,
      "🧷": 7071,
      "🧸": 7072,
      "🧹": 7073,
      "🧺": 7074,
      "🧻": 7075,
      "🧼": 7076,
      "🧽": 7077,
      "🧾": 7078,
      "🧿": 7079,
      "🩰": 7080,
      "🩱": 7081,
      "🩲": 7082,
      "🩳": 7083,
      "🩴": 7084,
      "🩸": 7085,
      "🩹": 7086,
      "🩺": 7087,
      "🩻": 7088,
      "🩼": 7089,
      "🪀": 7090,
      "🪁": 7091,
      "🪂": 7092,
      "🪃": 7093,
      "🪄": 7094,
      "🪅": 7095,
      "🪆": 7096,
      "🪐": 7097,
      "🪑": 7098,
      "🪒": 7099,
      "🪓": 7100,
      "🪔": 7101,
      "🪕": 7102,
      "🪖": 7103,
      "🪗": 7104,
      "🪘": 7105,
      "🪙": 7106,
      "🪚": 7107,
      "🪛": 7108,
      "🪜": 7109,
      "🪝": 7110,
      "🪞": 7111,
      "🪟": 7112,
      "🪠": 7113,
      "🪡": 7114,
      "🪢": 7115,
      "🪣": 7116,
      "🪤": 7117,
      "🪥": 7118,
      "🪦": 7119,
      "🪧": 7120,
      "🪨": 7121,
      "🪩": 7122,
      "🪪": 7123,
      "🪫": 7124,
      "🪬": 7125,
      "🪰": 7126,
      "🪱": 7127,
      "🪲": 7128,
      "🪳": 7129,
      "🪴": 7130,
      "🪵": 7131,
      "🪶": 7132,
      "🪷": 7133,
      "🪸": 7134,
      "🪹": 7135,
      "🪺": 7136,
      "🫀": 7137,
      "🫁": 7138,
      "🫂": 7139,
      "🫃": 7140,
      "🫄": 7141,
      "🫅": 7142,
      "🫐": 7143,
      "🫑": 7144,
      "🫒": 7145,
      "🫓": 7146,
      "🫔": 7147,
      "🫕": 7148,
      "🫖": 7149,
      "🫗": 7150,
      "🫘": 7151,
      "🫙": 7152,
      "🫠": 7153,
      "🫡": 7154,
      "🫢": 7155,
      "🫣": 7156,
      "🫤": 7157,
      "🫥": 7158,
      "🫦": 7159,
      "🫧": 7160,
      "🫰": 7161,
      "🫱": 7162,
      "🫲": 7163,
      "🫳": 7164,
      "🫴": 7165,
      "🫵": 7166,
      "🫶": 7167,
      "🭹": 7168,
      "🮤": 7169,
      "🮥": 7170,
      "𥙿": 7171,
      "􀀀": 7172,
      "en": 7173,
      "er": 7174,
      "es": 7175,
      "in": 7176,
      "an": 7177,
      "th": 7178,
      "on": 7179,
      "ar": 7180,
      "or": 7181,
      "de": 7182,
      "at": 7183,
      "al": 7184,
      "as": 7185,
      "re": 7186,
      "to": 7187,
      "is": 7188,
      "the": 7189,
      "ti": 7190,
      "ou": 7191,
      "os": 7192,
      "le": 7193,
      "un": 7194,
      "te": 7195,
      "ci": 7196,
      "and": 7197,
      "la": 7198,
      "ing": 7199,
      "el": 7200,
      "ic": 7201,
      "om": 7202,
      "qu": 7203,
      "ad": 7204,
      "it": 7205,
      "ed": 7206,
      "ro": 7207,
      "of": 7208,
      "ent": 7209,
      "ch": 7210,
      "se": 7211,
      "am": 7212,
      "con": 7213,
      "tr": 7214,
      "us": 7215,
      "ac": 7216,
      "que": 7217,
      "ol": 7218,
      "for": 7219,
      "im": 7220,
      "id": 7221,
      "com": 7222,
      "il": 7223,
      "you": 7224,
      "ur": 7225,
      "ab": 7226,
      "ion": 7227,
      "di": 7228,
      "pro": 7229,
      "lo": 7230,
      "ve": 7231,
      "ter": 7232,
      "be": 7233,
      "ig": 7234,
      "ma": 7235,
      "per": 7236,
      "par": 7237,
      "su": 7238,
      "ta": 7239,
      "me": 7240,
      "ón": 7241,
      "no": 7242,
      "ce": 7243,
      "res": 7244,
      "ver": 7245,
      "ul": 7246,
      "ir": 7247,
      "ge": 7248,
      "st": 7249,
      "he": 7250,
      "do": 7251,
      "ex": 7252,
      "tion": 7253,
      "pe": 7254,
      "ation": 7255,
      "li": 7256,
      "ne": 7257,
      "that": 7258,
      "por": 7259,
      "are": 7260,
      "ap": 7261,
      "est": 7262,
      "pu": 7263,
      "ción": 7264,
      "can": 7265,
      "um": 7266,
      "mo": 7267,
      "po": 7268,
      "ly": 7269,
      "los": 7270,
      "ст": 7271,
      "una": 7272,
      "ri": 7273,
      "ith": 7274,
      "wh": 7275,
      "ten": 7276,
      "gr": 7277,
      "so": 7278,
      "ke": 7279,
      "ay": 7280,
      "ct": 7281,
      "ate": 7282,
      "para": 7283,
      "ant": 7284,
      "si": 7285,
      "но": 7286,
      "with": 7287,
      "em": 7288,
      "der": 7289,
      "cu": 7290,
      "las": 7291,
      "то": 7292,
      "ces": 7293,
      "ни": 7294,
      "pl": 7295,
      "ere": 7296,
      "ist": 7297,
      "pr": 7298,
      "ha": 7299,
      "go": 7300,
      "co": 7301,
      "des": 7302,
      "vi": 7303,
      "ld": 7304,
      "ple": 7305,
      "ut": 7306,
      "del": 7307,
      "на": 7308,
      "ра": 7309,
      "ро": 7310,
      "we": 7311,
      "ко": 7312,
      "fe": 7313,
      "fr": 7314,
      "ue": 7315,
      "по": 7316,
      "son": 7317,
      "ht": 7318,
      "The": 7319,
      "your": 7320,
      "ment": 7321,
      "et": 7322,
      "ien": 7323,
      "ser": 7324,
      "tic": 7325,
      "ra": 7326,
      "fi": 7327,
      "ould": 7328,
      "op": 7329,
      "iz": 7330,
      "ine": 7331,
      "cre": 7332,
      "end": 7333,
      "all": 7334,
      "gu": 7335,
      "fic": 7336,
      "fer": 7337,
      "cion": 7338,
      "out": 7339,
      "wor": 7340,
      "ari": 7341,
      "pos": 7342,
      "lu": 7343,
      "tu": 7344,
      "ет": 7345,
      "man": 7346,
      "ente": 7347,
      "ow": 7348,
      "port": 7349,
      "Th": 7350,
      "pre": 7351,
      "ich": 7352,
      "les": 7353,
      "ther": 7354,
      "ado": 7355,
      "ва": 7356,
      "tos": 7357,
      "je": 7358,
      "du": 7359,
      "ás": 7360,
      "ре": 7361,
      "ía": 7362,
      "au": 7363,
      "ть": 7364,
      "av": 7365,
      "gen": 7366,
      "ome": 7367,
      "ación": 7368,
      "ли": 7369,
      "sh": 7370,
      "те": 7371,
      "od": 7372,
      "In": 7373,
      "не": 7374,
      "pa": 7375,
      "ity": 7376,
      "our": 7377,
      "ame": 7378,
      "ble": 7379,
      "ts": 7380,
      "form": 7381,
      "able": 7382,
      "ill": 7383,
      "--": 7384,
      "by": 7385,
      "ль": 7386,
      "во": 7387,
      "ны": 7388,
      "oun": 7389,
      "ore": 7390,
      "tem": 7391,
      "00": 7392,
      "ка": 7393,
      "ob": 7394,
      "го": 7395,
      "ie": 7396,
      "dis": 7397,
      "мо": 7398,
      "ight": 7399,
      "have": 7400,
      "not": 7401,
      "ри": 7402,
      "str": 7403,
      "ans": 7404,
      "ag": 7405,
      "idad": 7406,
      "age": 7407,
      "más": 7408,
      "iv": 7409,
      "Es": 7410,
      "``": 7411,
      "ada": 7412,
      "ber": 7413,
      "one": 7414,
      "ia": 7415,
      "como": 7416,
      "inter": 7417,
      "ted": 7418,
      "dat": 7419,
      "pla": 7420,
      "bo": 7421,
      "Wh": 7422,
      "pres": 7423,
      "cia": 7424,
      "bi": 7425,
      "from": 7426,
      "ind": 7427,
      "fun": 7428,
      "ase": 7429,
      "cal": 7430,
      "if": 7431,
      "ach": 7432,
      "ess": 7433,
      "ty": 7434,
      "ction": 7435,
      "bre": 7436,
      "ud": 7437,
      "ure": 7438,
      "cial": 7439,
      "inc": 7440,
      "qui": 7441,
      "ме": 7442,
      "ll": 7443,
      "car": 7444,
      "tiv": 7445,
      "import": 7446,
      "ys": 7447,
      "this": 7448,
      "ica": 7449,
      "En": 7450,
      "ers": 7451,
      "og": 7452,
      "ле": 7453,
      "some": 7454,
      "cri": 7455,
      "mu": 7456,
      "ev": 7457,
      "has": 7458,
      "cur": 7459,
      "ло": 7460,
      "bu": 7461,
      "cor": 7462,
      "ps": 7463,
      "int": 7464,
      "low": 7465,
      "other": 7466,
      "че": 7467,
      "act": 7468,
      "br": 7469,
      "pon": 7470,
      "ni": 7471,
      "tra": 7472,
      "ck": 7473,
      "ally": 7474,
      "col": 7475,
      "та": 7476,
      "да": 7477,
      "ante": 7478,
      "об": 7479,
      "ca": 7480,
      "more": 7481,
      "pued": 7482,
      "ки": 7483,
      "work": 7484,
      "ciones": 7485,
      "cont": 7486,
      "da": 7487,
      "де": 7488,
      "person": 7489,
      "ust": 7490,
      "mi": 7491,
      "use": 7492,
      "was": 7493,
      "any": 7494,
      "ard": 7495,
      "mat": 7496,
      "ве": 7497,
      "за": 7498,
      "ack": 7499,
      "its": 7500,
      "ando": 7501,
      "La": 7502,
      "ales": 7503,
      "but": 7504,
      "ous": 7505,
      "gram": 7506,
      "up": 7507,
      "ти": 7508,
      "hel": 7509,
      "val": 7510,
      "spe": 7511,
      "min": 7512,
      "sol": 7513,
      "sig": 7514,
      "ese": 7515,
      "pi": 7516,
      "za": 7517,
      "vel": 7518,
      "mos": 7519,
      "which": 7520,
      "ell": 7521,
      "ся": 7522,
      "men": 7523,
      "pen": 7524,
      "inclu": 7525,
      "про": 7526,
      "This": 7527,
      "may": 7528,
      "gun": 7529,
      "dif": 7530,
      "tions": 7531,
      "ми": 7532,
      "aj": 7533,
      "cr": 7534,
      "fin": 7535,
      "lar": 7536,
      "will": 7537,
      "ла": 7538,
      "cess": 7539,
      "ele": 7540,
      "ph": 7541,
      "their": 7542,
      "ations": 7543,
      "vid": 7544,
      "tur": 7545,
      "mar": 7546,
      "ля": 7547,
      "ular": 7548,
      "era": 7549,
      "lic": 7550,
      "king": 7551,
      "now": 7552,
      "ot": 7553,
      "med": 7554,
      "such": 7555,
      "ores": 7556,
      "со": 7557,
      "cons": 7558,
      "до": 7559,
      "enti": 7560,
      "would": 7561,
      "ass": 7562,
      "It": 7563,
      "20": 7564,
      "ви": 7565,
      "ren": 7566,
      "ero": 7567,
      "my": 7568,
      "ede": 7569,
      "ма": 7570,
      "pt": 7571,
      "tri": 7572,
      "oug": 7573,
      "ence": 7574,
      "comm": 7575,
      "vari": 7576,
      "get": 7577,
      "Re": 7578,
      "den": 7579,
      "ding": 7580,
      "uti": 7581,
      "ical": 7582,
      "way": 7583,
      "бо": 7584,
      "about": 7585,
      "like": 7586,
      "vide": 7587,
      "tex": 7588,
      "вы": 7589,
      "**": 7590,
      "ive": 7591,
      "gener": 7592,
      "El": 7593,
      "vers": 7594,
      "bas": 7595,
      "és": 7596,
      "ting": 7597,
      "ance": 7598,
      "reg": 7599,
      "What": 7600,
      "ory": 7601,
      "ace": 7602,
      "cer": 7603,
      "help": 7604,
      "time": 7605,
      "cul": 7606,
      "na": 7607,
      "ef": 7608,
      "ound": 7609,
      "ong": 7610,
      "ide": 7611,
      "program": 7612,
      "hum": 7613,
      "che": 7614,
      "lan": 7615,
      "же": 7616,
      "they": 7617,
      "ated": 7618,
      "als": 7619,
      "data": 7620,
      "puede": 7621,
      "also": 7622,
      "dos": 7623,
      "ins": 7624,
      "19": 7625,
      "10": 7626,
      "sim": 7627,
      "ear": 7628,
      "én": 7629,
      "posi": 7630,
      "ile": 7631,
      "und": 7632,
      "entes": 7633,
      "olog": 7634,
      "An": 7635,
      "ido": 7636,
      "ados": 7637,
      "wer": 7638,
      "her": 7639,
      "ok": 7640,
      "tien": 7641,
      "vis": 7642,
      "used": 7643,
      "abil": 7644,
      "ния": 7645,
      "dr": 7646,
      "yth": 7647,
      "atur": 7648,
      "ies": 7649,
      "ques": 7650,
      "produ": 7651,
      "vo": 7652,
      "ambi": 7653,
      "fo": 7654,
      "```": 7655,
      "how": 7656,
      "ру": 7657,
      "ди": 7658,
      "ful": 7659,
      "ice": 7660,
      "forma": 7661,
      "ors": 7662,
      "ning": 7663,
      "You": 7664,
      "exam": 7665,
      "there": 7666,
      "know": 7667,
      "using": 7668,
      "tw": 7669,
      "ци": 7670,
      "put": 7671,
      "num": 7672,
      "//": 7673,
      "ough": 7674,
      "real": 7675,
      "ang": 7676,
      "ystem": 7677,
      "utili": 7678,
      "cas": 7679,
      "lis": 7680,
      "art": 7681,
      "ary": 7682,
      "ens": 7683,
      "cho": 7684,
      "new": 7685,
      "..": 7686,
      "could": 7687,
      "dad": 7688,
      "encia": 7689,
      "need": 7690,
      "io": 7691,
      "от": 7692,
      "при": 7693,
      "emp": 7694,
      "----": 7695,
      "eng": 7696,
      "cap": 7697,
      "ents": 7698,
      "what": 7699,
      "tas": 7700,
      "lear": 7701,
      "án": 7702,
      "pol": 7703,
      "As": 7704,
      "af": 7705,
      "die": 7706,
      "vol": 7707,
      "Ch": 7708,
      "Con": 7709,
      "()": 7710,
      "ject": 7711,
      "mis": 7712,
      "си": 7713,
      "ult": 7714,
      "them": 7715,
      "ina": 7716,
      "comple": 7717,
      "ual": 7718,
      "mas": 7719,
      "plan": 7720,
      "thing": 7721,
      "ython": 7722,
      "чи": 7723,
      "over": 7724,
      "ep": 7725,
      "tain": 7726,
      "differ": 7727,
      "что": 7728,
      "бы": 7729,
      "code": 7730,
      "mente": 7731,
      "bet": 7732,
      "iento": 7733,
      "ej": 7734,
      "ely": 7735,
      "пе": 7736,
      "ние": 7737,
      "gar": 7738,
      "ider": 7739,
      "pas": 7740,
      "\",": 7741,
      "into": 7742,
      "mon": 7743,
      "mer": 7744,
      "tener": 7745,
      "led": 7746,
      "make": 7747,
      "ier": 7748,
      "AI": 7749,
      "exper": 7750,
      "ves": 7751,
      "ча": 7752,
      "play": 7753,
      "tive": 7754,
      "amente": 7755,
      "inte": 7756,
      "system": 7757,
      "model": 7758,
      "из": 7759,
      "ze": 7760,
      "се": 7761,
      "plic": 7762,
      "tar": 7763,
      "human": 7764,
      "stru": 7765,
      "ativ": 7766,
      "Al": 7767,
      "don": 7768,
      "sel": 7769,
      "dow": 7770,
      "sa": 7771,
      "ста": 7772,
      "cl": 7773,
      "sus": 7774,
      "rel": 7775,
      "ión": 7776,
      "ties": 7777,
      "ein": 7778,
      "сти": 7779,
      "If": 7780,
      "có": 7781,
      "ating": 7782,
      "respon": 7783,
      "fa": 7784,
      "function": 7785,
      ").": 7786,
      "cos": 7787,
      "cent": 7788,
      "ks": 7789,
      "under": 7790,
      "sobre": 7791,
      "important": 7792,
      "day": 7793,
      "sal": 7794,
      "jo": 7795,
      "gan": 7796,
      "ís": 7797,
      "set": 7798,
      "ры": 7799,
      "entre": 7800,
      "try": 7801,
      "ку": 7802,
      "dur": 7803,
      "hab": 7804,
      "ange": 7805,
      "row": 7806,
      "va": 7807,
      "esta": 7808,
      "ga": 7809,
      "tre": 7810,
      "ico": 7811,
      "uni": 7812,
      "ds": 7813,
      "tal": 7814,
      "should": 7815,
      "sin": 7816,
      "trans": 7817,
      "ven": 7818,
      "das": 7819,
      "Ho": 7820,
      "ater": 7821,
      "ded": 7822,
      "ис": 7823,
      "pend": 7824,
      "stand": 7825,
      "tim": 7826,
      "red": 7827,
      "Qu": 7828,
      "jor": 7829,
      "pero": 7830,
      "text": 7831,
      "rol": 7832,
      "bar": 7833,
      "ho": 7834,
      "his": 7835,
      "__": 7836,
      "example": 7837,
      "enta": 7838,
      "inst": 7839,
      "No": 7840,
      "),": 7841,
      "zu": 7842,
      "хо": 7843,
      "cis": 7844,
      "much": 7845,
      "web": 7846,
      "fol": 7847,
      "ments": 7848,
      "ak": 7849,
      "speci": 7850,
      "erg": 7851,
      "vir": 7852,
      "utiliz": 7853,
      "ías": 7854,
      "acer": 7855,
      "Por": 7856,
      ");": 7857,
      "ms": 7858,
      "сто": 7859,
      "fici": 7860,
      "ign": 7861,
      "fil": 7862,
      "De": 7863,
      "tica": 7864,
      "inform": 7865,
      "langu": 7866,
      "clas": 7867,
      "ste": 7868,
      "these": 7869,
      "For": 7870,
      "Un": 7871,
      "igh": 7872,
      "alg": 7873,
      "мож": 7874,
      "just": 7875,
      "ду": 7876,
      "oci": 7877,
      "pat": 7878,
      "ayud": 7879,
      "char": 7880,
      "раз": 7881,
      "who": 7882,
      "cir": 7883,
      "ite": 7884,
      "ava": 7885,
      "than": 7886,
      "rect": 7887,
      "Se": 7888,
      "consider": 7889,
      "ced": 7890,
      "prim": 7891,
      "many": 7892,
      "very": 7893,
      "ates": 7894,
      "gre": 7895,
      "ún": 7896,
      "cias": 7897,
      "acter": 7898,
      "Com": 7899,
      "when": 7900,
      "ton": 7901,
      "Pro": 7902,
      "ras": 7903,
      "line": 7904,
      "net": 7905,
      "each": 7906,
      "это": 7907,
      "proble": 7908,
      "oper": 7909,
      "espe": 7910,
      "hist": 7911,
      "len": 7912,
      "provide": 7913,
      "му": 7914,
      "ida": 7915,
      "ics": 7916,
      "then": 7917,
      "Ex": 7918,
      "ador": 7919,
      "Here": 7920,
      "number": 7921,
      "ry": 7922,
      "tern": 7923,
      "az": 7924,
      "ip": 7925,
      "adas": 7926,
      "нны": 7927,
      "want": 7928,
      "ib": 7929,
      "devel": 7930,
      "most": 7931,
      "world": 7932,
      "difer": 7933,
      "ambién": 7934,
      "name": 7935,
      "rit": 7936,
      "sp": 7937,
      "different": 7938,
      "fre": 7939,
      "ше": 7940,
      "neces": 7941,
      "back": 7942,
      "Can": 7943,
      "sub": 7944,
      "ung": 7945,
      "hay": 7946,
      "cript": 7947,
      "process": 7948,
      "coun": 7949,
      "ño": 7950,
      "fir": 7951,
      "let": 7952,
      "fu": 7953,
      "self": 7954,
      "ving": 7955,
      "mejor": 7956,
      "antes": 7957,
      "ну": 7958,
      "arch": 7959,
      "where": 7960,
      "tros": 7961,
      "inci": 7962,
      "hor": 7963,
      "vent": 7964,
      "Par": 7965,
      "iste": 7966,
      "tech": 7967,
      "inu": 7968,
      "pueden": 7969,
      "turn": 7970,
      "rough": 7971,
      "emplo": 7972,
      "cau": 7973,
      "Si": 7974,
      "gg": 7975,
      "file": 7976,
      "create": 7977,
      "sure": 7978,
      "па": 7979,
      "How": 7980,
      "ink": 7981,
      "fact": 7982,
      "ast": 7983,
      "сть": 7984,
      "main": 7985,
      "light": 7986,
      "gua": 7987,
      "mit": 7988,
      "bel": 7989,
      "ople": 7990,
      "кото": 7991,
      "Ar": 7992,
      "ще": 7993,
      "top": 7994,
      "list": 7995,
      "algun": 7996,
      "find": 7997,
      "лу": 7998,
      "Python": 7999,
      "sion": 8000,
      "лю": 8001,
      "ick": 8002,
      "ario": 8003,
      "requi": 8004,
      "ise": 8005,
      "contr": 8006,
      "нно": 8007,
      "ben": 8008,
      "nolog": 8009,
      "pal": 8010,
      "ew": 8011,
      "read": 8012,
      "hacer": 8013,
      "для": 8014,
      "cus": 8015,
      "come": 8016,
      "ose": 8017,
      "pop": 8018,
      "ско": 8019,
      "ween": 8020,
      "key": 8021,
      "sur": 8022,
      "ento": 8023,
      "app": 8024,
      "To": 8025,
      "mal": 8026,
      "ги": 8027,
      "pri": 8028,
      "cy": 8029,
      "add": 8030,
      "ori": 8031,
      "between": 8032,
      "ér": 8033,
      "bus": 8034,
      "game": 8035,
      "mem": 8036,
      "language": 8037,
      "este": 8038,
      "ish": 8039,
      "fec": 8040,
      "people": 8041,
      "depend": 8042,
      "obje": 8043,
      "dar": 8044,
      "ann": 8045,
      "St": 8046,
      "wever": 8047,
      "sible": 8048,
      "пре": 8049,
      "rite": 8050,
      "cada": 8051,
      "energ": 8052,
      "sum": 8053,
      "ger": 8054,
      "ня": 8055,
      "ild": 8056,
      "ши": 8057,
      "while": 8058,
      "idades": 8059,
      "through": 8060,
      "ты": 8061,
      "signi": 8062,
      "ya": 8063,
      "sen": 8064,
      "ative": 8065,
      "importante": 8066,
      "til": 8067,
      "quí": 8068,
      "specific": 8069,
      "esto": 8070,
      "cam": 8071,
      "cción": 8072,
      "):": 8073,
      "endo": 8074,
      "train": 8075,
      "part": 8076,
      "compu": 8077,
      "signific": 8078,
      "pes": 8079,
      "information": 8080,
      "serv": 8081,
      "ug": 8082,
      "ner": 8083,
      "been": 8084,
      "run": 8085,
      "ft": 8086,
      "follow": 8087,
      "bor": 8088,
      "He": 8089,
      "Ad": 8090,
      "seg": 8091,
      "fore": 8092,
      "tir": 8093,
      "Open": 8094,
      "cause": 8095,
      "lim": 8096,
      "ones": 8097,
      "result": 8098,
      "princi": 8099,
      "develop": 8100,
      "\".": 8101,
      "experien": 8102,
      "isten": 8103,
      "good": 8104,
      "ão": 8105,
      "well": 8106,
      "це": 8107,
      "ctr": 8108,
      "une": 8109,
      "understand": 8110,
      "prom": 8111,
      "sk": 8112,
      "cep": 8113,
      "aliz": 8114,
      "long": 8115,
      "only": 8116,
      "edad": 8117,
      "uego": 8118,
      "dist": 8119,
      "sor": 8120,
      "ye": 8121,
      "льно": 8122,
      "вать": 8123,
      "down": 8124,
      "12": 8125,
      "мы": 8126,
      "high": 8127,
      "adi": 8128,
      "ata": 8129,
      "comp": 8130,
      "ulti": 8131,
      "ain": 8132,
      "tiene": 8133,
      "cil": 8134,
      "podr": 8135,
      "tan": 8136,
      "two": 8137,
      "datos": 8138,
      "However": 8139,
      "nu": 8140,
      "18": 8141,
      "sch": 8142,
      "anim": 8143,
      "tom": 8144,
      "cio": 8145,
      "sup": 8146,
      "open": 8147,
      "fect": 8148,
      "imp": 8149,
      "ros": 8150,
      "first": 8151,
      "van": 8152,
      "ura": 8153,
      "ato": 8154,
      "ade": 8155,
      "power": 8156,
      "ale": 8157,
      "Cu": 8158,
      "take": 8159,
      "leg": 8160,
      "puedes": 8161,
      "conf": 8162,
      "itar": 8163,
      "ages": 8164,
      "са": 8165,
      "ices": 8166,
      "sof": 8167,
      "tiem": 8168,
      "flu": 8169,
      "eas": 8170,
      "fam": 8171,
      "dition": 8172,
      "does": 8173,
      "mun": 8174,
      "actu": 8175,
      "ges": 8176,
      "based": 8177,
      "бу": 8178,
      "га": 8179,
      "cum": 8180,
      "ature": 8181,
      "sour": 8182,
      "ples": 8183,
      "жи": 8184,
      "ют": 8185,
      "ved": 8186,
      "eri": 8187,
      "ejemplo": 8188,
      "allow": 8189,
      "ayudar": 8190,
      "ire": 8191,
      "sit": 8192,
      "yn": 8193,
      "were": 8194,
      "amb": 8195,
      "prote": 8196,
      "cle": 8197,
      "tor": 8198,
      "también": 8199,
      "</": 8200,
      "tribu": 8201,
      "000": 8202,
      "mus": 8203,
      "return": 8204,
      "user": 8205,
      "apren": 8206,
      "ana": 8207,
      "popular": 8208,
      "activ": 8209,
      "being": 8210,
      "type": 8211,
      "value": 8212,
      "Los": 8213,
      "Be": 8214,
      "ways": 8215,
      "own": 8216,
      "(\"": 8217,
      "pub": 8218,
      "istant": 8219,
      "bol": 8220,
      "divid": 8221,
      "ino": 8222,
      "aci": 8223,
      "бе": 8224,
      "está": 8225,
      "tes": 8226,
      "arr": 8227,
      "icos": 8228,
      "best": 8229,
      "ena": 8230,
      "hand": 8231,
      "We": 8232,
      "ется": 8233,
      "ños": 8234,
      "pli": 8235,
      "abaj": 8236,
      "ability": 8237,
      "сь": 8238,
      "termin": 8239,
      "ables": 8240,
      "vida": 8241,
      "tiempo": 8242,
      "sm": 8243,
      "Des": 8244,
      "curr": 8245,
      "htt": 8246,
      "life": 8247,
      "including": 8248,
      "zar": 8249,
      "estr": 8250,
      "right": 8251,
      "как": 8252,
      "def": 8253,
      "econ": 8254,
      "=\"": 8255,
      "war": 8256,
      "redu": 8257,
      "ja": 8258,
      "oc": 8259,
      "ficial": 8260,
      "informa": 8261,
      "star": 8262,
      "descri": 8263,
      "input": 8264,
      "ticas": 8265,
      "There": 8266,
      "tware": 8267,
      "ных": 8268,
      "зо": 8269,
      "social": 8270,
      "present": 8271,
      "15": 8272,
      "natur": 8273,
      "soci": 8274,
      "print": 8275,
      "или": 8276,
      "algor": 8277,
      "://": 8278,
      "ng": 8279,
      "equ": 8280,
      "Pr": 8281,
      "Ma": 8282,
      "include": 8283,
      "зна": 8284,
      "которы": 8285,
      "sti": 8286,
      "class": 8287,
      "ily": 8288,
      "ici": 8289,
      "rela": 8290,
      "possible": 8291,
      "py": 8292,
      "blo": 8293,
      "multi": 8294,
      "super": 8295,
      "gran": 8296,
      "ters": 8297,
      "desar": 8298,
      "oria": 8299,
      "bin": 8300,
      "uro": 8301,
      "ин": 8302,
      "xim": 8303,
      "recom": 8304,
      "ски": 8305,
      "thod": 8306,
      "even": 8307,
      "qué": 8308,
      "conoci": 8309,
      "Cre": 8310,
      "quier": 8311,
      "less": 8312,
      "see": 8313,
      "prof": 8314,
      "solu": 8315,
      "general": 8316,
      "ize": 8317,
      "had": 8318,
      "ons": 8319,
      "Me": 8320,
      "ions": 8321,
      "otros": 8322,
      "Do": 8323,
      "poten": 8324,
      "anti": 8325,
      "ness": 8326,
      "amiento": 8327,
      "old": 8328,
      "tle": 8329,
      "appro": 8330,
      "поль": 8331,
      "Go": 8332,
      "ba": 8333,
      "ris": 8334,
      "lig": 8335,
      "гу": 8336,
      "11": 8337,
      "cla": 8338,
      "fri": 8339,
      "trabaj": 8340,
      "alth": 8341,
      "icas": 8342,
      "place": 8343,
      "может": 8344,
      "Tr": 8345,
      "--------": 8346,
      "Le": 8347,
      "udi": 8348,
      "year": 8349,
      "Is": 8350,
      "ality": 8351,
      "tus": 8352,
      "pass": 8353,
      "ings": 8354,
      "method": 8355,
      "crear": 8356,
      "kes": 8357,
      "nos": 8358,
      "hi": 8359,
      "lle": 8360,
      "dem": 8361,
      "todo": 8362,
      "iter": 8363,
      "character": 8364,
      "ita": 8365,
      "hr": 8366,
      "organ": 8367,
      "impro": 8368,
      "pregun": 8369,
      "су": 8370,
      "ines": 8371,
      "ext": 8372,
      "bal": 8373,
      "nú": 8374,
      "design": 8375,
      "ano": 8376,
      "cómo": 8377,
      "tical": 8378,
      "pañ": 8379,
      "Para": 8380,
      "muy": 8381,
      "GP": 8382,
      "defin": 8383,
      "ru": 8384,
      "ram": 8385,
      "ту": 8386,
      "bra": 8387,
      "bil": 8388,
      "https": 8389,
      "información": 8390,
      "lí": 8391,
      "ket": 8392,
      "object": 8393,
      "hy": 8394,
      "const": 8395,
      "color": 8396,
      "bat": 8397,
      "cel": 8398,
      "sing": 8399,
      "ctor": 8400,
      "ür": 8401,
      "bes": 8402,
      "ные": 8403,
      "tro": 8404,
      "test": 8405,
      "digo": 8406,
      "cual": 8407,
      "可以": 8408,
      "software": 8409,
      "mode": 8410,
      "ody": 8411,
      "usu": 8412,
      "materi": 8413,
      "fut": 8414,
      "har": 8415,
      "applic": 8416,
      "nom": 8417,
      "base": 8418,
      "iente": 8419,
      "libr": 8420,
      "individ": 8421,
      "incre": 8422,
      "tico": 8423,
      "tell": 8424,
      "щи": 8425,
      "ran": 8426,
      "mag": 8427,
      "ave": 8428,
      "ences": 8429,
      "direct": 8430,
      "current": 8431,
      "segu": 8432,
      "write": 8433,
      "istema": 8434,
      "So": 8435,
      "manera": 8436,
      "cen": 8437,
      "auf": 8438,
      "...": 8439,
      "view": 8440,
      "side": 8441,
      "arti": 8442,
      "bl": 8443,
      "tec": 8444,
      "ital": 8445,
      "100": 8446,
      "сте": 8447,
      "And": 8448,
      "cha": 8449,
      "learning": 8450,
      "lead": 8451,
      "water": 8452,
      "Pu": 8453,
      "pour": 8454,
      "gas": 8455,
      "зы": 8456,
      "err": 8457,
      "bir": 8458,
      "move": 8459,
      "ming": 8460,
      "mundo": 8461,
      "give": 8462,
      "nue": 8463,
      "feel": 8464,
      "trav": 8465,
      "control": 8466,
      "202": 8467,
      "30": 8468,
      "izar": 8469,
      "tial": 8470,
      "known": 8471,
      "sigu": 8472,
      "==": 8473,
      "гра": 8474,
      "ww": 8475,
      "simple": 8476,
      "log": 8477,
      "nor": 8478,
      "сле": 8479,
      "persona": 8480,
      "medi": 8481,
      "complex": 8482,
      "pun": 8483,
      "сли": 8484,
      "iones": 8485,
      "proper": 8486,
      "fle": 8487,
      "both": 8488,
      "small": 8489,
      "cto": 8490,
      "té": 8491,
      "bien": 8492,
      "sci": 8493,
      "refer": 8494,
      "сво": 8495,
      "mor": 8496,
      "ward": 8497,
      "project": 8498,
      "dic": 8499,
      "жа": 8500,
      "sea": 8501,
      "ву": 8502,
      "amos": 8503,
      "imple": 8504,
      "Per": 8505,
      "пра": 8506,
      "learn": 8507,
      "comun": 8508,
      "word": 8509,
      "sistema": 8510,
      "plain": 8511,
      "Est": 8512,
      "did": 8513,
      "cted": 8514,
      "proces": 8515,
      "ífic": 8516,
      ".\"": 8517,
      "Sin": 8518,
      "mach": 8519,
      "von": 8520,
      "uno": 8521,
      "roll": 8522,
      "ор": 8523,
      "acti": 8524,
      "din": 8525,
      "might": 8526,
      "partic": 8527,
      "todos": 8528,
      "here": 8529,
      "cional": 8530,
      "aciones": 8531,
      "land": 8532,
      "viron": 8533,
      "large": 8534,
      "пи": 8535,
      "invol": 8536,
      "ree": 8537,
      "ком": 8538,
      "ак": 8539,
      "compr": 8540,
      "código": 8541,
      "',": 8542,
      "lich": 8543,
      "Mar": 8544,
      "mé": 8545,
      "tras": 8546,
      "grap": 8547,
      "cat": 8548,
      "ible": 8549,
      "mean": 8550,
      "ilar": 8551,
      "icht": 8552,
      "vez": 8553,
      "mes": 8554,
      "table": 8555,
      "eine": 8556,
      "200": 8557,
      "works": 8558,
      "hasta": 8559,
      "els": 8560,
      "personas": 8561,
      "demás": 8562,
      "ateg": 8563,
      "identi": 8564,
      "ses": 8565,
      "tool": 8566,
      "má": 8567,
      "fy": 8568,
      "Java": 8569,
      "cambi": 8570,
      "orig": 8571,
      "expl": 8572,
      "lease": 8573,
      "gin": 8574,
      "ior": 8575,
      "diferentes": 8576,
      "uso": 8577,
      "Ass": 8578,
      "ться": 8579,
      "tivo": 8580,
      "AP": 8581,
      "cuenta": 8582,
      "bro": 8583,
      "They": 8584,
      "mil": 8585,
      "indow": 8586,
      "source": 8587,
      "Esto": 8588,
      "pel": 8589,
      "python": 8590,
      "нь": 8591,
      "writ": 8592,
      "Su": 8593,
      "estos": 8594,
      "body": 8595,
      "tig": 8596,
      "dom": 8597,
      "face": 8598,
      "ames": 8599,
      "arios": 8600,
      "algorith": 8601,
      "bot": 8602,
      "before": 8603,
      "чно": 8604,
      "compar": 8605,
      "ety": 8606,
      "pan": 8607,
      "arg": 8608,
      "lat": 8609,
      "video": 8610,
      "atures": 8611,
      "size": 8612,
      "han": 8613,
      "commun": 8614,
      "struct": 8615,
      "cultur": 8616,
      "better": 8617,
      "lengua": 8618,
      "pur": 8619,
      "start": 8620,
      "под": 8621,
      "conne": 8622,
      "friend": 8623,
      "environ": 8624,
      "algunos": 8625,
      "continu": 8626,
      "technolog": 8627,
      "Mo": 8628,
      "вет": 8629,
      "ín": 8630,
      "range": 8631,
      "level": 8632,
      "pic": 8633,
      "puedo": 8634,
      "dire": 8635,
      "after": 8636,
      "book": 8637,
      "ism": 8638,
      "usar": 8639,
      "making": 8640,
      "16": 8641,
      "electr": 8642,
      "так": 8643,
      "исполь": 8644,
      "requ": 8645,
      "energy": 8646,
      "dra": 8647,
      "ken": 8648,
      "sab": 8649,
      "edu": 8650,
      "25": 8651,
      "often": 8652,
      "lla": 8653,
      "order": 8654,
      "hard": 8655,
      "dam": 8656,
      "encias": 8657,
      "ress": 8658,
      "сло": 8659,
      "These": 8660,
      "because": 8661,
      "Te": 8662,
      "sever": 8663,
      "inal": 8664,
      "made": 8665,
      "ender": 8666,
      "lay": 8667,
      "situ": 8668,
      "##": 8669,
      "labor": 8670,
      "health": 8671,
      "::": 8672,
      "answer": 8673,
      "uses": 8674,
      "ational": 8675,
      "ats": 8676,
      "buil": 8677,
      "embar": 8678,
      "gos": 8679,
      "mess": 8680,
      "función": 8681,
      "same": 8682,
      "rece": 8683,
      "sty": 8684,
      "free": 8685,
      "around": 8686,
      "public": 8687,
      "าร": 8688,
      "head": 8689,
      "lish": 8690,
      "script": 8691,
      "вер": 8692,
      "auto": 8693,
      "decis": 8694,
      "image": 8695,
      "Assistant": 8696,
      "dri": 8697,
      "local": 8698,
      "Some": 8699,
      "On": 8700,
      "var": 8701,
      "Qué": 8702,
      "ym": 8703,
      "ство": 8704,
      "lista": 8705,
      "++": 8706,
      "econom": 8707,
      "jun": 8708,
      "vas": 8709,
      "ix": 8710,
      "ús": 8711,
      "дру": 8712,
      "sos": 8713,
      "change": 8714,
      "solo": 8715,
      "command": 8716,
      "integr": 8717,
      "load": 8718,
      "off": 8719,
      "ito": 8720,
      "ini": 8721,
      "consu": 8722,
      "cli": 8723,
      "сно": 8724,
      "chang": 8725,
      "ный": 8726,
      "personal": 8727,
      "sive": 8728,
      "ik": 8729,
      "without": 8730,
      "following": 8731,
      "every": 8732,
      "sta": 8733,
      "reci": 8734,
      "few": 8735,
      "все": 8736,
      "ции": 8737,
      "ál": 8738,
      "dev": 8739,
      "uel": 8740,
      "state": 8741,
      "point": 8742,
      "ized": 8743,
      "stud": 8744,
      "ength": 8745,
      "influ": 8746,
      "estas": 8747,
      "path": 8748,
      "lado": 8749,
      "рабо": 8750,
      "14": 8751,
      "esti": 8752,
      "\")": 8753,
      "term": 8754,
      "tional": 8755,
      "lot": 8756,
      "ture": 8757,
      "соб": 8758,
      "emo": 8759,
      "artificial": 8760,
      "Sure": 8761,
      "desarrol": 8762,
      "ures": 8763,
      "she": 8764,
      "mayor": 8765,
      "provid": 8766,
      "HT": 8767,
      "oh": 8768,
      "encontr": 8769,
      "temper": 8770,
      "dig": 8771,
      "still": 8772,
      "air": 8773,
      "expres": 8774,
      "lenguaje": 8775,
      "ues": 8776,
      "vil": 8777,
      "support": 8778,
      "desde": 8779,
      "But": 8780,
      "look": 8781,
      "senti": 8782,
      "care": 8783,
      "17": 8784,
      "site": 8785,
      "По": 8786,
      "require": 8787,
      "idea": 8788,
      "йте": 8789,
      "loc": 8790,
      "\":": 8791,
      "SS": 8792,
      "think": 8793,
      "вля": 8794,
      "action": 8795,
      "permi": 8796,
      "implement": 8797,
      "зу": 8798,
      "date": 8799,
      "ila": 8800,
      "inux": 8801,
      "ils": 8802,
      "embargo": 8803,
      "Lo": 8804,
      "idos": 8805,
      "aus": 8806,
      "edes": 8807,
      "cuer": 8808,
      "IA": 8809,
      "sign": 8810,
      "cios": 8811,
      "question": 8812,
      "belie": 8813,
      "advan": 8814,
      "lugar": 8815,
      "Please": 8816,
      "ional": 8817,
      "show": 8818,
      "ask": 8819,
      "respu": 8820,
      "ost": 8821,
      "great": 8822,
      "пере": 8823,
      "cra": 8824,
      "ank": 8825,
      "anal": 8826,
      "ants": 8827,
      "можно": 8828,
      "improve": 8829,
      "ime": 8830,
      "chen": 8831,
      "ator": 8832,
      "ff": 8833,
      "sión": 8834,
      "fon": 8835,
      "años": 8836,
      "dé": 8837,
      "uct": 8838,
      "ient": 8839,
      "reas": 8840,
      "computer": 8841,
      "fiel": 8842,
      "poder": 8843,
      "capaci": 8844,
      "adores": 8845,
      "conse": 8846,
      "iment": 8847,
      "ization": 8848,
      "especial": 8849,
      "ctiv": 8850,
      "moder": 8851,
      "Además": 8852,
      "ios": 8853,
      "condi": 8854,
      "programación": 8855,
      "fuer": 8856,
      "propor": 8857,
      "algo": 8858,
      "ument": 8859,
      "ного": 8860,
      "Una": 8861,
      "50": 8862,
      "пу": 8863,
      "issu": 8864,
      "verse": 8865,
      "ling": 8866,
      "ities": 8867,
      "Aquí": 8868,
      "Uni": 8869,
      "Co": 8870,
      "deta": 8871,
      "вле": 8872,
      "usion": 8873,
      "prob": 8874,
      "фи": 8875,
      "clar": 8876,
      "interes": 8877,
      "training": 8878,
      "Wor": 8879,
      "tienen": 8880,
      "resour": 8881,
      "nen": 8882,
      "similar": 8883,
      "Las": 8884,
      "fue": 8885,
      "olu": 8886,
      "inten": 8887,
      "food": 8888,
      "tienes": 8889,
      "questions": 8890,
      "lti": 8891,
      "lik": 8892,
      "something": 8893,
      "могу": 8894,
      "systems": 8895,
      "development": 8896,
      "мен": 8897,
      "вре": 8898,
      "escri": 8899,
      "palab": 8900,
      "juego": 8901,
      "ían": 8902,
      "ctos": 8903,
      "cuando": 8904,
      "historia": 8905,
      "aprender": 8906,
      "ี่": 8907,
      "donde": 8908,
      "стве": 8909,
      "natural": 8910,
      "aut": 8911,
      "aba": 8912,
      "neur": 8913,
      "bla": 8914,
      "say": 8915,
      "อง": 8916,
      "77": 8917,
      "ний": 8918,
      "utiliza": 8919,
      "mom": 8920,
      "parti": 8921,
      "story": 8922,
      "кон": 8923,
      "Ver": 8924,
      "tipo": 8925,
      "13": 8926,
      "giv": 8927,
      "docum": 8928,
      "mic": 8929,
      "environment": 8930,
      "concep": 8931,
      "explain": 8932,
      "pir": 8933,
      "rele": 8934,
      "clos": 8935,
      "ches": 8936,
      "чески": 8937,
      "ска": 8938,
      "entos": 8939,
      "ogle": 8940,
      "case": 8941,
      "ды": 8942,
      "ке": 8943,
      "Bu": 8944,
      "keep": 8945,
      "imiento": 8946,
      "('": 8947,
      "bit": 8948,
      "wa": 8949,
      "Ne": 8950,
      "ello": 8951,
      "ists": 8952,
      "member": 8953,
      "II": 8954,
      "iness": 8955,
      "мер": 8956,
      "dio": 8957,
      "utilizar": 8958,
      "ção": 8959,
      "dir": 8960,
      "server": 8961,
      "Sch": 8962,
      "На": 8963,
      "else": 8964,
      "sugg": 8965,
      "effici": 8966,
      "quer": 8967,
      "Linux": 8968,
      "pect": 8969,
      "cell": 8970,
      "phys": 8971,
      "nea": 8972,
      "several": 8973,
      "ной": 8974,
      "US": 8975,
      "depen": 8976,
      "dise": 8977,
      "ware": 8978,
      "earch": 8979,
      "access": 8980,
      "parte": 8981,
      "debe": 8982,
      "experience": 8983,
      "eta": 8984,
      "ints": 8985,
      "sele": 8986,
      "steps": 8987,
      "ientos": 8988,
      "constru": 8989,
      "tres": 8990,
      "____": 8991,
      "determin": 8992,
      "forman": 8993,
      "areas": 8994,
      "response": 8995,
      "zo": 8996,
      "cab": 8997,
      "kann": 8998,
      "dest": 8999,
      "udad": 9000,
      "things": 9001,
      "día": 9002,
      "mero": 9003,
      "compon": 9004,
      "่า": 9005,
      "too": 9006,
      "ply": 9007,
      "When": 9008,
      "ped": 9009,
      "offer": 9010,
      "incluy": 9011,
      "build": 9012,
      "ista": 9013,
      "estar": 9014,
      "ря": 9015,
      "etc": 9016,
      "ER": 9017,
      "ific": 9018,
      "graph": 9019,
      "Col": 9020,
      "hol": 9021,
      "board": 9022,
      "Puedes": 9023,
      "pare": 9024,
      "país": 9025,
      "actions": 9026,
      "ests": 9027,
      "Ap": 9028,
      "一个": 9029,
      "GPT": 9030,
      "mejorar": 9031,
      "mir": 9032,
      "tidad": 9033,
      "jos": 9034,
      "estudi": 9035,
      "stat": 9036,
      "acy": 9037,
      "Gr": 9038,
      "deb": 9039,
      "ancia": 9040,
      "ша": 9041,
      "tecnolog": 9042,
      "decir": 9043,
      "prefer": 9044,
      "Este": 9045,
      "ctive": 9046,
      "mill": 9047,
      "которые": 9048,
      "dass": 9049,
      "those": 9050,
      "home": 9051,
      "für": 9052,
      "My": 9053,
      "би": 9054,
      "necess": 9055,
      "via": 9056,
      "ML": 9057,
      "tanto": 9058,
      "chall": 9059,
      "combin": 9060,
      "número": 9061,
      "found": 9062,
      "ax": 9063,
      "lica": 9064,
      "Fr": 9065,
      "ship": 9066,
      "correct": 9067,
      "check": 9068,
      "neg": 9069,
      "ctions": 9070,
      "availa": 9071,
      "cing": 9072,
      "item": 9073,
      "must": 9074,
      "aria": 9075,
      "existen": 9076,
      "cantidad": 9077,
      "clear": 9078,
      "years": 9079,
      "oking": 9080,
      "ON": 9081,
      "him": 9082,
      "content": 9083,
      "así": 9084,
      "bon": 9085,
      "cionar": 9086,
      "ought": 9087,
      "please": 9088,
      "programming": 9089,
      "))": 9090,
      "AR": 9091,
      "propi": 9092,
      "grow": 9093,
      "ort": 9094,
      "рас": 9095,
      "bed": 9096,
      "itor": 9097,
      "temas": 9098,
      "event": 9099,
      "cou": 9100,
      "intelig": 9101,
      "plat": 9102,
      "ream": 9103,
      "pose": 9104,
      "install": 9105,
      "ficult": 9106,
      "habil": 9107,
      "ml": 9108,
      "ances": 9109,
      "ным": 9110,
      "today": 9111,
      "resul": 9112,
      "posible": 9113,
      "during": 9114,
      "actual": 9115,
      "istic": 9116,
      "peti": 9117,
      "Er": 9118,
      "Inter": 9119,
      "otro": 9120,
      "erra": 9121,
      "ticos": 9122,
      "amoun": 9123,
      "algunas": 9124,
      "cuent": 9125,
      "pie": 9126,
      "calcul": 9127,
      "dent": 9128,
      "output": 9129,
      "tivos": 9130,
      "network": 9131,
      "vos": 9132,
      "están": 9133,
      "research": 9134,
      "cin": 9135,
      "miento": 9136,
      "ajes": 9137,
      "potential": 9138,
      "ré": 9139,
      "deci": 9140,
      "wide": 9141,
      "uma": 9142,
      "ем": 9143,
      "cept": 9144,
      "certain": 9145,
      "product": 9146,
      "OS": 9147,
      "ismo": 9148,
      "sich": 9149,
      "arse": 9150,
      "durante": 9151,
      "Im": 9152,
      "caracter": 9153,
      "always": 9154,
      "fav": 9155,
      "That": 9156,
      "ek": 9157,
      "cient": 9158,
      "regular": 9159,
      "style": 9160,
      "luz": 9161,
      "nicht": 9162,
      "particular": 9163,
      "One": 9164,
      "фор": 9165,
      "string": 9166,
      "nombre": 9167,
      "eros": 9168,
      "texto": 9169,
      "пред": 9170,
      "ecu": 9171,
      "grou": 9172,
      "ption": 9173,
      "impact": 9174,
      "Sie": 9175,
      "Script": 9176,
      "Str": 9177,
      "zen": 9178,
      "distribu": 9179,
      "speed": 9180,
      "fal": 9181,
      "ub": 9182,
      "fac": 9183,
      "40": 9184,
      "ili": 9185,
      "óg": 9186,
      "ciudad": 9187,
      "space": 9188,
      "ที่": 9189,
      "ground": 9190,
      "agua": 9191,
      "80": 9192,
      "times": 9193,
      "línea": 9194,
      "Use": 9195,
      "teor": 9196,
      "Or": 9197,
      "others": 9198,
      "called": 9199,
      "нных": 9200,
      "vous": 9201,
      "fla": 9202,
      "words": 9203,
      "arte": 9204,
      "skill": 9205,
      "hora": 9206,
      "pack": 9207,
      "ác": 9208,
      "ama": 9209,
      "colle": 9210,
      "search": 9211,
      "examples": 9212,
      "features": 9213,
      "non": 9214,
      "лько": 9215,
      "factors": 9216,
      "area": 9217,
      "cover": 9218,
      "fur": 9219,
      "position": 9220,
      "ping": 9221,
      "quality": 9222,
      "ath": 9223,
      "воз": 9224,
      "formance": 9225,
      "frame": 9226,
      "тель": 9227,
      "represent": 9228,
      "aplic": 9229,
      "fas": 9230,
      "lad": 9231,
      "umen": 9232,
      "efec": 9233,
      "havi": 9234,
      "тер": 9235,
      "machine": 9236,
      "city": 9237,
      "iendo": 9238,
      "ensure": 9239,
      "gra": 9240,
      "IN": 9241,
      "espa": 9242,
      "clim": 9243,
      "Hola": 9244,
      "muchos": 9245,
      "ball": 9246,
      "API": 9247,
      "tradi": 9248,
      "jug": 9249,
      "count": 9250,
      "ID": 9251,
      "mind": 9252,
      "mient": 9253,
      "final": 9254,
      "sis": 9255,
      "addition": 9256,
      "resources": 9257,
      "ories": 9258,
      "ban": 9259,
      "ей": 9260,
      "mientras": 9261,
      "fl": 9262,
      "⠀⠀": 9263,
      "models": 9264,
      "тельно": 9265,
      "tel": 9266,
      "centr": 9267,
      "Bo": 9268,
      "дет": 9269,
      "Dis": 9270,
      "ali": 9271,
      "ets": 9272,
      "exten": 9273,
      "herram": 9274,
      "aquí": 9275,
      "ema": 9276,
      "equi": 9277,
      "means": 9278,
      "cualquier": 9279,
      "available": 9280,
      "likely": 9281,
      "ona": 9282,
      "orden": 9283,
      "ird": 9284,
      "contain": 9285,
      "plus": 9286,
      "ideas": 9287,
      "polí": 9288,
      "mac": 9289,
      "understanding": 9290,
      "encontrar": 9291,
      "fig": 9292,
      "hal": 9293,
      "jue": 9294,
      "его": 9295,
      "ров": 9296,
      "чтобы": 9297,
      "][": 9298,
      "common": 9299,
      "podría": 9300,
      "config": 9301,
      "chan": 9302,
      "message": 9303,
      "significant": 9304,
      "optim": 9305,
      "problem": 9306,
      "priv": 9307,
      "lit": 9308,
      "],": 9309,
      "ció": 9310,
      "aten": 9311,
      "performance": 9312,
      "fied": 9313,
      "Esta": 9314,
      "Google": 9315,
      "hap": 9316,
      "──": 9317,
      "techni": 9318,
      "ont": 9319,
      "Yes": 9320,
      "жно": 9321,
      "veloci": 9322,
      "fís": 9323,
      "going": 9324,
      "Euro": 9325,
      "gal": 9326,
      "он": 9327,
      "ства": 9328,
      "salud": 9329,
      "Au": 9330,
      "array": 9331,
      "recor": 9332,
      "weight": 9333,
      "pens": 9334,
      "indows": 9335,
      "Ser": 9336,
      "cond": 9337,
      "tasks": 9338,
      "block": 9339,
      "าม": 9340,
      "espec": 9341,
      "why": 9342,
      "мя": 9343,
      "тов": 9344,
      "atch": 9345,
      "behavi": 9346,
      "ivel": 9347,
      "version": 9348,
      "files": 9349,
      "LE": 9350,
      "ler": 9351,
      "llig": 9352,
      "button": 9353,
      "Em": 9354,
      "últi": 9355,
      "estruct": 9356,
      "technology": 9357,
      "рова": 9358,
      "Gu": 9359,
      "due": 9360,
      "ko": 9361,
      "lin": 9362,
      "perform": 9363,
      "finan": 9364,
      "Man": 9365,
      "wit": 9366,
      "кой": 9367,
      "Eng": 9368,
      "various": 9369,
      "ходи": 9370,
      "ön": 9371,
      "mismo": 9372,
      "gs": 9373,
      "users": 9374,
      "Clar": 9375,
      "another": 9376,
      "empres": 9377,
      "respuesta": 9378,
      "específic": 9379,
      "encuent": 9380,
      "inv": 9381,
      "adap": 9382,
      "curity": 9383,
      "engine": 9384,
      "ased": 9385,
      "pode": 9386,
      "indus": 9387,
      "การ": 9388,
      "arth": 9389,
      "conten": 9390,
      "Chat": 9391,
      "зда": 9392,
      "exp": 9393,
      "нии": 9394,
      "met": 9395,
      "avo": 9396,
      "aplica": 9397,
      "oder": 9398,
      "зи": 9399,
      "types": 9400,
      "боль": 9401,
      "гда": 9402,
      "60": 9403,
      "intellig": 9404,
      "Có": 9405,
      "шь": 9406,
      "стра": 9407,
      "needs": 9408,
      "poli": 9409,
      "recomend": 9410,
      "ная": 9411,
      "themat": 9412,
      "future": 9413,
      "note": 9414,
      "achie": 9415,
      "ге": 9416,
      "mel": 9417,
      "mate": 9418,
      "elf": 9419,
      "ora": 9420,
      "titu": 9421,
      "segur": 9422,
      "yo": 9423,
      "modelo": 9424,
      "ба": 9425,
      "сы": 9426,
      "otras": 9427,
      "efici": 9428,
      "ley": 9429,
      "suc": 9430,
      "cs": 9431,
      "ек": 9432,
      "hen": 9433,
      "También": 9434,
      "wie": 9435,
      "conver": 9436,
      "step": 9437,
      "través": 9438,
      "explic": 9439,
      "cular": 9440,
      "tual": 9441,
      "спе": 9442,
      "пол": 9443,
      "pattern": 9444,
      "multiple": 9445,
      "website": 9446,
      "online": 9447,
      "team": 9448,
      "ayudarte": 9449,
      "Let": 9450,
      "gi": 9451,
      "values": 9452,
      "cour": 9453,
      "glo": 9454,
      "room": 9455,
      "puesto": 9456,
      "caso": 9457,
      "unique": 9458,
      "company": 9459,
      "ides": 9460,
      "utes": 9461,
      "until": 9462,
      "Gen": 9463,
      "sto": 9464,
      "approach": 9465,
      "2023": 9466,
      "ah": 9467,
      "individu": 9468,
      "fel": 9469,
      "next": 9470,
      "mol": 9471,
      "far": 9472,
      "building": 9473,
      "urs": 9474,
      "ivo": 9475,
      "minu": 9476,
      "elemen": 9477,
      "Claro": 9478,
      "seguir": 9479,
      "points": 9480,
      "rand": 9481,
      "challeng": 9482,
      "ases": 9483,
      "accur": 9484,
      "их": 9485,
      "ense": 9486,
      "Hay": 9487,
      "RE": 9488,
      "nam": 9489,
      "cn": 9490,
      "ilos": 9491,
      "volu": 9492,
      "strong": 9493,
      "history": 9494,
      "JavaScript": 9495,
      "contribu": 9496,
      "muchas": 9497,
      "ited": 9498,
      "realizar": 9499,
      "\">": 9500,
      "ную": 9501,
      "By": 9502,
      "ór": 9503,
      "menos": 9504,
      "enn": 9505,
      "empre": 9506,
      "anything": 9507,
      "allows": 9508,
      "algorithm": 9509,
      "meas": 9510,
      "ledge": 9511,
      "быть": 9512,
      "favor": 9513,
      "gus": 9514,
      "ві": 9515,
      "elle": 9516,
      "cog": 9517,
      "tools": 9518,
      "AM": 9519,
      "eras": 9520,
      "precis": 9521,
      "flo": 9522,
      "att": 9523,
      "sent": 9524,
      "recur": 9525,
      "ency": 9526,
      "ately": 9527,
      "prog": 9528,
      "sym": 9529,
      "exist": 9530,
      "field": 9531,
      "hom": 9532,
      "squ": 9533,
      "really": 9534,
      "vern": 9535,
      "wo": 9536,
      "спо": 9537,
      "trabajo": 9538,
      "applications": 9539,
      "ización": 9540,
      "ai": 9541,
      "AN": 9542,
      "использо": 9543,
      "numbers": 9544,
      "Cómo": 9545,
      "ju": 9546,
      "convers": 9547,
      "While": 9548,
      "corre": 9549,
      "effec": 9550,
      "Write": 9551,
      "pá": 9552,
      "effect": 9553,
      "relev": 9554,
      "scal": 9555,
      "tiva": 9556,
      "total": 9557,
      "лее": 9558,
      "relation": 9559,
      "Am": 9560,
      "difficult": 9561,
      "idas": 9562,
      "joy": 9563,
      "rate": 9564,
      "тре": 9565,
      "become": 9566,
      "changes": 9567,
      "night": 9568,
      "ron": 9569,
      "altern": 9570,
      "grav": 9571,
      "energía": 9572,
      "colum": 9573,
      ",,": 9574,
      "otra": 9575,
      "ющи": 9576,
      "left": 9577,
      "html": 9578,
      "respe": 9579,
      "proye": 9580,
      "grand": 9581,
      "inste": 9582,
      "poco": 9583,
      "context": 9584,
      "mod": 9585,
      "nivel": 9586,
      "том": 9587,
      "sí": 9588,
      "24": 9589,
      "flow": 9590,
      "помо": 9591,
      "fall": 9592,
      "Ele": 9593,
      "ัน": 9594,
      "tric": 9595,
      "ciona": 9596,
      "profess": 9597,
      "ampli": 9598,
      "roid": 9599,
      "force": 9600,
      "valor": 9601,
      "Mon": 9602,
      "siguiente": 9603,
      "capacidad": 9604,
      "sens": 9605,
      "sha": 9606,
      "unque": 9607,
      "sido": 9608,
      "ux": 9609,
      "стро": 9610,
      "язы": 9611,
      "focus": 9612,
      "org": 9613,
      "variable": 9614,
      "cost": 9615,
      "AT": 9616,
      "ellos": 9617,
      "entr": 9618,
      "amount": 9619,
      "Li": 9620,
      "Res": 9621,
      "fort": 9622,
      "rá": 9623,
      "sole": 9624,
      "yourself": 9625,
      "evolu": 9626,
      "ades": 9627,
      "gether": 9628,
      "inves": 9629,
      "uring": 9630,
      "limit": 9631,
      "Addition": 9632,
      "од": 9633,
      "tax": 9634,
      "practi": 9635,
      "tect": 9636,
      "pregunta": 9637,
      "aga": 9638,
      "reduce": 9639,
      "individual": 9640,
      "ically": 9641,
      "www": 9642,
      "agen": 9643,
      "ns": 9644,
      "eren": 9645,
      "interpre": 9646,
      "aprendi": 9647,
      "normal": 9648,
      "platform": 9649,
      "hace": 9650,
      "Over": 9651,
      "kön": 9652,
      "дела": 9653,
      "bás": 9654,
      "baj": 9655,
      "ever": 9656,
      "óm": 9657,
      "law": 9658,
      "juegos": 9659,
      "Que": 9660,
      "atten": 9661,
      "appe": 9662,
      "principal": 9663,
      "whe": 9664,
      "palabras": 9665,
      "Windows": 9666,
      "call": 9667,
      "mathemat": 9668,
      "interest": 9669,
      "Earth": 9670,
      "Pod": 9671,
      "With": 9672,
      "ial": 9673,
      "нные": 9674,
      "structure": 9675,
      "пер": 9676,
      "199": 9677,
      "AS": 9678,
      "sound": 9679,
      "problemas": 9680,
      "security": 9681,
      "могут": 9682,
      "gir": 9683,
      "ush": 9684,
      "imin": 9685,
      "нима": 9686,
      "proceso": 9687,
      "At": 9688,
      "ula": 9689,
      "тся": 9690,
      "desarrollo": 9691,
      "itas": 9692,
      "comes": 9693,
      "resumen": 9694,
      "safe": 9695,
      "sind": 9696,
      "craft": 9697,
      "fit": 9698,
      "contin": 9699,
      "Car": 9700,
      "skills": 9701,
      "material": 9702,
      "((": 9703,
      "alu": 9704,
      "transform": 9705,
      "Create": 9706,
      "HTML": 9707,
      "takes": 9708,
      "peque": 9709,
      "error": 9710,
      "่อ": 9711,
      "нет": 9712,
      "erte": 9713,
      "intro": 9714,
      "refle": 9715,
      "técn": 9716,
      "meaning": 9717,
      "ella": 9718,
      "bur": 9719,
      "сту": 9720,
      "indic": 9721,
      "permite": 9722,
      "22": 9723,
      "explor": 9724,
      "sie": 9725,
      "лове": 9726,
      "educ": 9727,
      "fá": 9728,
      "стви": 9729,
      "ayuda": 9730,
      "short": 9731,
      "consul": 9732,
      "Hello": 9733,
      "ilosop": 9734,
      "ней": 9735,
      "pad": 9736,
      "core": 9737,
      "пис": 9738,
      "ด้": 9739,
      "application": 9740,
      "aplicaciones": 9741,
      "clic": 9742,
      "vor": 9743,
      "mais": 9744,
      "ulation": 9745,
      "Algun": 9746,
      "oma": 9747,
      "cry": 9748,
      "media": 9749,
      "commend": 9750,
      "knowledge": 9751,
      "ísticas": 9752,
      "considered": 9753,
      "Additionally": 9754,
      "given": 9755,
      "Val": 9756,
      "predic": 9757,
      "Espero": 9758,
      "тив": 9759,
      "habit": 9760,
      "eno": 9761,
      "anto": 9762,
      "humans": 9763,
      "issues": 9764,
      "came": 9765,
      "ote": 9766,
      "ouse": 9767,
      "ental": 9768,
      "terms": 9769,
      "pto": 9770,
      "tab": 9771,
      "dies": 9772,
      "study": 9773,
      "inteligencia": 9774,
      "cono": 9775,
      "кие": 9776,
      "ответ": 9777,
      "idi": 9778,
      "together": 9779,
      "She": 9780,
      "jus": 9781,
      "дей": 9782,
      "begin": 9783,
      "generate": 9784,
      "ready": 9785,
      "Tu": 9786,
      "siempre": 9787,
      "Your": 9788,
      "theory": 9789,
      "acces": 9790,
      "format": 9791,
      "jas": 9792,
      "мет": 9793,
      "true": 9794,
      "();": 9795,
      "Could": 9796,
      "quick": 9797,
      "instal": 9798,
      "elo": 9799,
      "document": 9800,
      "War": 9801,
      "enough": 9802,
      "manage": 9803,
      "someone": 9804,
      "ativo": 9805,
      "าก": 9806,
      "ord": 9807,
      "32": 9808,
      "более": 9809,
      "Ge": 9810,
      "ция": 9811,
      "клю": 9812,
      "áfic": 9813,
      "within": 9814,
      "creating": 9815,
      "bles": 9816,
      "valid": 9817,
      "ather": 9818,
      "██": 9819,
      "aría": 9820,
      "ству": 9821,
      "mús": 9822,
      "ene": 9823,
      "todas": 9824,
      "ícul": 9825,
      "music": 9826,
      "saber": 9827,
      "Pre": 9828,
      "child": 9829,
      "since": 9830,
      "Это": 9831,
      "')": 9832,
      "recommend": 9833,
      "ican": 9834,
      "sets": 9835,
      "service": 9836,
      "easy": 9837,
      "provides": 9838,
      "behavior": 9839,
      "leep": 9840,
      "pot": 9841,
      "rain": 9842,
      "success": 9843,
      "reach": 9844,
      "peri": 9845,
      "jour": 9846,
      "tru": 9847,
      "Españ": 9848,
      "efficient": 9849,
      "Como": 9850,
      "tries": 9851,
      "слу": 9852,
      "bres": 9853,
      "illa": 9854,
      "ков": 9855,
      "ohn": 9856,
      "ules": 9857,
      "atura": 9858,
      "introdu": 9859,
      "alla": 9860,
      "über": 9861,
      "looking": 9862,
      "mucho": 9863,
      "Amer": 9864,
      "cula": 9865,
      "пример": 9866,
      "pú": 9867,
      "ан": 9868,
      "separ": 9869,
      "созда": 9870,
      "necessary": 9871,
      "Mic": 9872,
      "sun": 9873,
      "prevent": 9874,
      "liber": 9875,
      "cannot": 9876,
      "advanta": 9877,
      "adecu": 9878,
      "Why": 9879,
      "planet": 9880,
      "modern": 9881,
      "UR": 9882,
      "tomar": 9883,
      "importantes": 9884,
      "Fin": 9885,
      "需要": 9886,
      "love": 9887,
      "ries": 9888,
      "име": 9889,
      "Di": 9890,
      "ern": 9891,
      "three": 9892,
      "вой": 9893,
      "last": 9894,
      "strateg": 9895,
      "working": 9896,
      "resol": 9897,
      "teoría": 9898,
      "dans": 9899,
      "она": 9900,
      "condu": 9901,
      "contro": 9902,
      "original": 9903,
      "chos": 9904,
      "qued": 9905,
      "writing": 9906,
      "Sol": 9907,
      "job": 9908,
      "челове": 9909,
      "kind": 9910,
      "mechan": 9911,
      "enter": 9912,
      "hope": 9913,
      "grad": 9914,
      "govern": 9915,
      "llam": 9916,
      "vie": 9917,
      "ются": 9918,
      "gon": 9919,
      "business": 9920,
      "dim": 9921,
      "solar": 9922,
      "Die": 9923,
      "ні": 9924,
      "thought": 9925,
      "cious": 9926,
      "Ke": 9927,
      "ror": 9928,
      "eres": 9929,
      "Che": 9930,
      "сси": 9931,
      "communic": 9932,
      "если": 9933,
      "deep": 9934,
      "fundam": 9935,
      "ха": 9936,
      "дол": 9937,
      "visual": 9938,
      "objects": 9939,
      "tecnología": 9940,
      "oft": 9941,
      ".-": 9942,
      "ña": 9943,
      "languages": 9944,
      "significa": 9945,
      "mix": 9946,
      "objetos": 9947,
      "QL": 9948,
      "length": 9949,
      "entren": 9950,
      "js": 9951,
      "scre": 9952,
      "явля": 9953,
      "chat": 9954,
      "Thank": 9955,
      "break": 9956,
      "abilities": 9957,
      "task": 9958,
      "wid": 9959,
      "antum": 9960,
      "fully": 9961,
      "root": 9962,
      "Are": 9963,
      "Name": 9964,
      "zas": 9965,
      "services": 9966,
      "други": 9967,
      "eje": 9968,
      "complete": 9969,
      "library": 9970,
      "gust": 9971,
      "World": 9972,
      "rom": 9973,
      "ões": 9974,
      "div": 9975,
      "series": 9976,
      "second": 9977,
      "lie": 9978,
      "acto": 9979,
      "formas": 9980,
      "dispon": 9981,
      "EN": 9982,
      "дер": 9983,
      "sions": 9984,
      "sat": 9985,
      "makes": 9986,
      "Make": 9987,
      "draw": 9988,
      "habilidades": 9989,
      "ST": 9990,
      "jar": 9991,
      "zy": 9992,
      "ческо": 9993,
      "zaje": 9994,
      "intelligence": 9995,
      "hat": 9996,
      "deber": 9997,
      "tics": 9998,
      "previ": 9999,
      "never": 10000,
      "syn": 10001,
      "special": 10002,
      "ology": 10003,
      "relig": 10004,
      "options": 10005,
      "вам": 10006,
      "Ger": 10007,
      "OR": 10008,
      "ione": 10009,
      "evid": 10010,
      "aqu": 10011,
      "images": 10012,
      "wal": 10013,
      "три": 10014,
      "relativ": 10015,
      "ibil": 10016,
      "ère": 10017,
      "ert": 10018,
      "alguna": 10019,
      "New": 10020,
      "paper": 10021,
      "against": 10022,
      "Podr": 10023,
      "dex": 10024,
      "memory": 10025,
      "random": 10026,
      "goals": 10027,
      "seguridad": 10028,
      "abilidad": 10029,
      "nature": 10030,
      "evalu": 10031,
      "Pe": 10032,
      "wel": 10033,
      "instru": 10034,
      "нный": 10035,
      "termine": 10036,
      "sistemas": 10037,
      "ious": 10038,
      "cies": 10039,
      "abr": 10040,
      "terior": 10041,
      "problems": 10042,
      "ща": 10043,
      "calidad": 10044,
      "Add": 10045,
      "designed": 10046,
      "techniques": 10047,
      "уче": 10048,
      "cado": 10049,
      "thor": 10050,
      "remo": 10051,
      "scen": 10052,
      "auch": 10053,
      "automat": 10054,
      "ือ": 10055,
      "univers": 10056,
      "maintain": 10057,
      "uch": 10058,
      "estra": 10059,
      "64": 10060,
      "role": 10061,
      "email": 10062,
      "oud": 10063,
      "ential": 10064,
      "running": 10065,
      "John": 10066,
      "LL": 10067,
      "แล": 10068,
      "variety": 10069,
      "Ph": 10070,
      "rap": 10071,
      "produce": 10072,
      "sense": 10073,
      "ungen": 10074,
      "AD": 10075,
      "ée": 10076,
      "culo": 10077,
      "opin": 10078,
      "tura": 10079,
      "грам": 10080,
      "matemá": 10081,
      "eth": 10082,
      "medio": 10083,
      "aver": 10084,
      "descu": 10085,
      "elements": 10086,
      "related": 10087,
      "使用": 10088,
      "osa": 10089,
      "estable": 10090,
      "pués": 10091,
      "gráfic": 10092,
      "philosop": 10093,
      "Reg": 10094,
      "fen": 10095,
      "gru": 10096,
      "minim": 10097,
      "amig": 10098,
      "having": 10099,
      "experiment": 10100,
      "avoid": 10101,
      "sequ": 10102,
      "minutes": 10103,
      "Lu": 10104,
      "кра": 10105,
      "internet": 10106,
      "Ac": 10107,
      "тра": 10108,
      "prop": 10109,
      "market": 10110,
      "entific": 10111,
      "casa": 10112,
      "distance": 10113,
      "increase": 10114,
      "->": 10115,
      "exer": 10116,
      "posición": 10117,
      "cier": 10118,
      "loop": 10119,
      "oney": 10120,
      "чу": 10121,
      "utilizando": 10122,
      "further": 10123,
      "werden": 10124,
      "según": 10125,
      "----------------": 10126,
      "yes": 10127,
      "пла": 10128,
      "group": 10129,
      "3D": 10130,
      "mantener": 10131,
      "depending": 10132,
      "hour": 10133,
      "pap": 10134,
      "obtener": 10135,
      "display": 10136,
      "single": 10137,
      "aprendizaje": 10138,
      "Po": 10139,
      "alle": 10140,
      "fix": 10141,
      "prepar": 10142,
      "также": 10143,
      "ips": 10144,
      "pay": 10145,
      "dere": 10146,
      "mental": 10147,
      "instead": 10148,
      "iel": 10149,
      "rup": 10150,
      "junto": 10151,
      "España": 10152,
      "Aus": 10153,
      "apro": 10154,
      "imag": 10155,
      "invest": 10156,
      "recursos": 10157,
      "later": 10158,
      "мно": 10159,
      "velocidad": 10160,
      "пы": 10161,
      "active": 10162,
      "box": 10163,
      "voc": 10164,
      "dit": 10165,
      "done": 10166,
      "seem": 10167,
      "comen": 10168,
      "attack": 10169,
      "Fe": 10170,
      "appear": 10171,
      "мне": 10172,
      "det": 10173,
      "elé": 10174,
      "comput": 10175,
      "digital": 10176,
      "send": 10177,
      "repres": 10178,
      "benef": 10179,
      "cip": 10180,
      "trained": 10181,
      "PC": 10182,
      "ias": 10183,
      "ull": 10184,
      "blic": 10185,
      "dol": 10186,
      "istas": 10187,
      "elementos": 10188,
      "ับ": 10189,
      "вопро": 10190,
      "mut": 10191,
      "Ste": 10192,
      "modi": 10193,
      "df": 10194,
      "sibil": 10195,
      "empe": 10196,
      "prompt": 10197,
      "Nor": 10198,
      "esa": 10199,
      "antas": 10200,
      "profes": 10201,
      "ца": 10202,
      "physical": 10203,
      "created": 10204,
      "big": 10205,
      "มี": 10206,
      "press": 10207,
      "characters": 10208,
      "ejecu": 10209,
      "sou": 10210,
      "segun": 10211,
      "map": 10212,
      "methods": 10213,
      "objeto": 10214,
      "estado": 10215,
      "observ": 10216,
      "podrías": 10217,
      "hig": 10218,
      "---": 10219,
      "basic": 10220,
      "clu": 10221,
      "acción": 10222,
      "ury": 10223,
      "Data": 10224,
      "Of": 10225,
      "vice": 10226,
      "stor": 10227,
      "clus": 10228,
      "70": 10229,
      "año": 10230,
      "ouble": 10231,
      "track": 10232,
      "Set": 10233,
      "family": 10234,
      "características": 10235,
      "dial": 10236,
      "fres": 10237,
      "ied": 10238,
      "momento": 10239,
      "sleep": 10240,
      "้า": 10241,
      "abo": 10242,
      "usa": 10243,
      "verso": 10244,
      "results": 10245,
      "осно": 10246,
      "шо": 10247,
      "redi": 10248,
      "нной": 10249,
      "defini": 10250,
      "rat": 10251,
      "тно": 10252,
      "ью": 10253,
      "community": 10254,
      "tér": 10255,
      "height": 10256,
      "mó": 10257,
      "oss": 10258,
      "нию": 10259,
      "Web": 10260,
      "обще": 10261,
      "stay": 10262,
      "Sh": 10263,
      "raz": 10264,
      "meros": 10265,
      "él": 10266,
      "week": 10267,
      "virtual": 10268,
      "resultado": 10269,
      "เป": 10270,
      "perspe": 10271,
      "полу": 10272,
      "Если": 10273,
      "того": 10274,
      "avan": 10275,
      "helps": 10276,
      "CP": 10277,
      "emplos": 10278,
      "incluyendo": 10279,
      "кла": 10280,
      "trat": 10281,
      "igual": 10282,
      "varios": 10283,
      "Europe": 10284,
      "ChatGPT": 10285,
      "ете": 10286,
      "pain": 10287,
      "zer": 10288,
      "есть": 10289,
      "ingredi": 10290,
      "princip": 10291,
      "sigui": 10292,
      "economic": 10293,
      "ually": 10294,
      "uras": 10295,
      "choice": 10296,
      "humano": 10297,
      "лы": 10298,
      "可能": 10299,
      "ativa": 10300,
      "legal": 10301,
      "exact": 10302,
      "functions": 10303,
      "audi": 10304,
      "desarroll": 10305,
      "rest": 10306,
      "center": 10307,
      "developer": 10308,
      "использу": 10309,
      "IT": 10310,
      "happ": 10311,
      "player": 10312,
      "travel": 10313,
      "escribir": 10314,
      "Podrías": 10315,
      "concer": 10316,
      "page": 10317,
      "ientas": 10318,
      "Cal": 10319,
      "hu": 10320,
      "porque": 10321,
      "45": 10322,
      "got": 10323,
      "chool": 10324,
      "global": 10325,
      "aries": 10326,
      "pueda": 10327,
      "San": 10328,
      "largo": 10329,
      "стоя": 10330,
      "achieve": 10331,
      "Ro": 10332,
      "prác": 10333,
      "hacia": 10334,
      "нием": 10335,
      "custom": 10336,
      "radi": 10337,
      "fee": 10338,
      "eded": 10339,
      "angle": 10340,
      "science": 10341,
      "itos": 10342,
      "extra": 10343,
      "problema": 10344,
      "fácil": 10345,
      "ney": 10346,
      "lower": 10347,
      "width": 10348,
      "hid": 10349,
      "divers": 10350,
      "summar": 10351,
      "wards": 10352,
      "involves": 10353,
      "Ob": 10354,
      "aire": 10355,
      "cta": 10356,
      "cciones": 10357,
      "més": 10358,
      "ให": 10359,
      "connect": 10360,
      "Was": 10361,
      "np": 10362,
      "rend": 10363,
      "ได้": 10364,
      "conditions": 10365,
      "estructura": 10366,
      "ncia": 10367,
      "ysis": 10368,
      "циа": 10369,
      "address": 10370,
      "Once": 10371,
      "ienta": 10372,
      "entender": 10373,
      "tran": 10374,
      "emple": 10375,
      "ход": 10376,
      "Il": 10377,
      "rad": 10378,
      "вя": 10379,
      "esper": 10380,
      "icación": 10381,
      "música": 10382,
      "chem": 10383,
      "estab": 10384,
      "pair": 10385,
      "Estos": 10386,
      "configur": 10387,
      "áles": 10388,
      "cone": 10389,
      "shar": 10390,
      "pasos": 10391,
      "nuevo": 10392,
      "period": 10393,
      "doing": 10394,
      "fru": 10395,
      "option": 10396,
      "Les": 10397,
      "games": 10398,
      "hue": 10399,
      "gent": 10400,
      "lack": 10401,
      "buena": 10402,
      "mostr": 10403,
      "pically": 10404,
      "ráp": 10405,
      "amor": 10406,
      "einen": 10407,
      "económ": 10408,
      "Pol": 10409,
      "risk": 10410,
      "link": 10411,
      "คว": 10412,
      "nov": 10413,
      "additional": 10414,
      "SQL": 10415,
      "rot": 10416,
      "них": 10417,
      "punto": 10418,
      "fusion": 10419,
      "็น": 10420,
      "portun": 10421,
      "diferencia": 10422,
      "brow": 10423,
      "shape": 10424,
      "hl": 10425,
      "än": 10426,
      "onom": 10427,
      "cher": 10428,
      "pts": 10429,
      "alta": 10430,
      "oso": 10431,
      "rop": 10432,
      "genes": 10433,
      "198": 10434,
      "ders": 10435,
      "target": 10436,
      "powerful": 10437,
      "ynam": 10438,
      "herramientas": 10439,
      "ça": 10440,
      "mez": 10441,
      "ficar": 10442,
      "variables": 10443,
      "choose": 10444,
      "reason": 10445,
      "física": 10446,
      "iled": 10447,
      "ío": 10448,
      "aseg": 10449,
      "99": 10450,
      "Ich": 10451,
      "meet": 10452,
      "servi": 10453,
      "again": 10454,
      "erci": 10455,
      "quantum": 10456,
      "chain": 10457,
      "usuario": 10458,
      "aument": 10459,
      "clo": 10460,
      "ром": 10461,
      "меня": 10462,
      "sources": 10463,
      "United": 10464,
      "enjoy": 10465,
      "imagen": 10466,
      "friends": 10467,
      "Don": 10468,
      "ox": 10469,
      "wan": 10470,
      "parame": 10471,
      "логи": 10472,
      "conflic": 10473,
      "време": 10474,
      "фе": 10475,
      "secu": 10476,
      "обра": 10477,
      "mad": 10478,
      "arme": 10479,
      "taking": 10480,
      "aves": 10481,
      "archivo": 10482,
      "fast": 10483,
      "deli": 10484,
      "directory": 10485,
      "gina": 10486,
      "mys": 10487,
      "items": 10488,
      "enfo": 10489,
      "bran": 10490,
      "números": 10491,
      "usuarios": 10492,
      "principales": 10493,
      "ар": 10494,
      "incor": 10495,
      ",\"": 10496,
      "Pero": 10497,
      "้น": 10498,
      "emos": 10499,
      "hardware": 10500,
      "tengo": 10501,
      "ไม": 10502,
      "esp": 10503,
      "determine": 10504,
      "tains": 10505,
      "вания": 10506,
      "ких": 10507,
      "capital": 10508,
      "aces": 10509,
      "store": 10510,
      "execu": 10511,
      "datab": 10512,
      "mark": 10513,
      "setting": 10514,
      "форма": 10515,
      "veget": 10516,
      "extre": 10517,
      "appropri": 10518,
      "temperature": 10519,
      "entar": 10520,
      "professional": 10521,
      "CO": 10522,
      "Cons": 10523,
      "principi": 10524,
      "Bar": 10525,
      "систе": 10526,
      "whether": 10527,
      "Не": 10528,
      "ológ": 10529,
      "dependi": 10530,
      "eléctr": 10531,
      "ال": 10532,
      "лек": 10533,
      "close": 10534,
      "dia": 10535,
      "needed": 10536,
      "образ": 10537,
      "conven": 10538,
      "typically": 10539,
      "28": 10540,
      "คุ": 10541,
      "feed": 10542,
      "ift": 10543,
      "trying": 10544,
      "IM": 10545,
      "concept": 10546,
      "impres": 10547,
      "location": 10548,
      "vac": 10549,
      "country": 10550,
      "orial": 10551,
      "exercis": 10552,
      "stream": 10553,
      "evitar": 10554,
      "assist": 10555,
      "preguntas": 10556,
      "=>": 10557,
      "cording": 10558,
      "né": 10559,
      "sam": 10560,
      "},": 10561,
      "ระ": 10562,
      "grandes": 10563,
      "major": 10564,
      "tación": 10565,
      "который": 10566,
      "happen": 10567,
      "estro": 10568,
      "rather": 10569,
      "describe": 10570,
      "flex": 10571,
      "pread": 10572,
      "blue": 10573,
      "above": 10574,
      "Rust": 10575,
      "bs": 10576,
      "assistant": 10577,
      "logr": 10578,
      "iza": 10579,
      "depends": 10580,
      "request": 10581,
      "fish": 10582,
      "ordin": 10583,
      "ными": 10584,
      "away": 10585,
      "kt": 10586,
      "ian": 10587,
      "caf": 10588,
      "ibles": 10589,
      "Gener": 10590,
      "km": 10591,
      "prac": 10592,
      "full": 10593,
      "érica": 10594,
      "Sal": 10595,
      "útil": 10596,
      "tipos": 10597,
      "autom": 10598,
      "political": 10599,
      "consum": 10600,
      "clean": 10601,
      "Trans": 10602,
      "vin": 10603,
      "watch": 10604,
      "algorithms": 10605,
      "fü": 10606,
      "tut": 10607,
      "sem": 10608,
      "apo": 10609,
      "ement": 10610,
      "sont": 10611,
      "pho": 10612,
      "dimens": 10613,
      "ny": 10614,
      "объ": 10615,
      "können": 10616,
      "label": 10617,
      "rio": 10618,
      "post": 10619,
      "científic": 10620,
      "previous": 10621,
      "términ": 10622,
      "mö": 10623,
      "mass": 10624,
      "ites": 10625,
      "days": 10626,
      "ross": 10627,
      "layer": 10628,
      "empresa": 10629,
      "disposi": 10630,
      "eso": 10631,
      "least": 10632,
      "36": 10633,
      "goal": 10634,
      "datas": 10635,
      "зада": 10636,
      "variedad": 10637,
      "rosoft": 10638,
      "agr": 10639,
      "events": 10640,
      "Cont": 10641,
      "players": 10642,
      "cket": 10643,
      "white": 10644,
      "colores": 10645,
      "sociedad": 10646,
      "password": 10647,
      "wird": 10648,
      "icy": 10649,
      "coming": 10650,
      "sería": 10651,
      "einer": 10652,
      "ET": 10653,
      "Gre": 10654,
      "Py": 10655,
      "gain": 10656,
      "países": 10657,
      "civil": 10658,
      "itu": 10659,
      "scientific": 10660,
      "blan": 10661,
      "plot": 10662,
      "бли": 10663,
      "españ": 10664,
      "cionales": 10665,
      "discus": 10666,
      "details": 10667,
      "ciencia": 10668,
      "near": 10669,
      "rie": 10670,
      "easier": 10671,
      "aplicación": 10672,
      "ake": 10673,
      "При": 10674,
      "society": 10675,
      "IP": 10676,
      "won": 10677,
      "сет": 10678,
      "though": 10679,
      "astr": 10680,
      "diseño": 10681,
      "oo": 10682,
      "index": 10683,
      "dog": 10684,
      "цию": 10685,
      "cosas": 10686,
      "Cor": 10687,
      "aging": 10688,
      "tareas": 10689,
      "тем": 10690,
      "ejemplos": 10691,
      "investig": 10692,
      "35": 10693,
      "CT": 10694,
      "Med": 10695,
      "profun": 10696,
      "difference": 10697,
      "conocido": 10698,
      "offee": 10699,
      "share": 10700,
      "System": 10701,
      "money": 10702,
      "éx": 10703,
      "opción": 10704,
      "requires": 10705,
      "alizar": 10706,
      "quieres": 10707,
      "attention": 10708,
      "atu": 10709,
      "useful": 10710,
      "програм": 10711,
      "primer": 10712,
      "continue": 10713,
      "ám": 10714,
      "ático": 10715,
      "Cuál": 10716,
      "IS": 10717,
      "бя": 10718,
      "reli": 10719,
      "ige": 10720,
      "iliar": 10721,
      "Gra": 10722,
      "fan": 10723,
      "late": 10724,
      "anza": 10725,
      "fire": 10726,
      "said": 10727,
      "universe": 10728,
      "objetivo": 10729,
      "aw": 10730,
      "vary": 10731,
      "рі": 10732,
      "factores": 10733,
      "преде": 10734,
      "incl": 10735,
      "español": 10736,
      "Af": 10737,
      "dep": 10738,
      "property": 10739,
      "evidence": 10740,
      "一些": 10741,
      "mov": 10742,
      "tend": 10743,
      "dese": 10744,
      "cker": 10745,
      "anos": 10746,
      "ither": 10747,
      "difí": 10748,
      "humanos": 10749,
      "started": 10750,
      "requirements": 10751,
      "ray": 10752,
      "Как": 10753,
      "tele": 10754,
      "quickly": 10755,
      "black": 10756,
      "dentro": 10757,
      "screen": 10758,
      "bow": 10759,
      "live": 10760,
      "motiv": 10761,
      "includes": 10762,
      "experiencia": 10763,
      "\"\"": 10764,
      "kil": 10765,
      "sil": 10766,
      "school": 10767,
      "рет": 10768,
      "helpful": 10769,
      "будет": 10770,
      "Lear": 10771,
      "hos": 10772,
      "recog": 10773,
      "contra": 10774,
      "deriv": 10775,
      "90": 10776,
      "vot": 10777,
      "materials": 10778,
      "Jap": 10779,
      "mientos": 10780,
      "дь": 10781,
      "provided": 10782,
      "Fran": 10783,
      "Ty": 10784,
      "estás": 10785,
      "loss": 10786,
      "varias": 10787,
      "individuals": 10788,
      "aunque": 10789,
      "mej": 10790,
      "lying": 10791,
      "element": 10792,
      "stop": 10793,
      "เร": 10794,
      "语言": 10795,
      "void": 10796,
      "standard": 10797,
      "debido": 10798,
      "course": 10799,
      "DE": 10800,
      "инте": 10801,
      "ículas": 10802,
      "Dev": 10803,
      "peut": 10804,
      "measure": 10805,
      "жиз": 10806,
      "associ": 10807,
      "challenges": 10808,
      "问题": 10809,
      "ently": 10810,
      "valores": 10811,
      "dark": 10812,
      "siguientes": 10813,
      "band": 10814,
      "ciales": 10815,
      "buen": 10816,
      "egg": 10817,
      "tema": 10818,
      "ложе": 10819,
      "processing": 10820,
      "Ка": 10821,
      "already": 10822,
      "lengu": 10823,
      "brain": 10824,
      "identify": 10825,
      "analy": 10826,
      "scale": 10827,
      "gest": 10828,
      "Со": 10829,
      "ison": 10830,
      "appropriate": 10831,
      "26": 10832,
      "lés": 10833,
      "Мо": 10834,
      "match": 10835,
      "página": 10836,
      "dor": 10837,
      "edo": 10838,
      "extr": 10839,
      "production": 10840,
      "host": 10841,
      "intern": 10842,
      "anger": 10843,
      "Note": 10844,
      "rid": 10845,
      "нк": 10846,
      "song": 10847,
      "opciones": 10848,
      "время": 10849,
      "Get": 10850,
      "bing": 10851,
      "lines": 10852,
      "atr": 10853,
      "гово": 10854,
      "organiz": 10855,
      "List": 10856,
      "ais": 10857,
      "hre": 10858,
      "Что": 10859,
      "什么": 10860,
      "ровать": 10861,
      "Qui": 10862,
      "factor": 10863,
      "sugges": 10864,
      "alim": 10865,
      "cuán": 10866,
      "relación": 10867,
      "minutos": 10868,
      "relevant": 10869,
      "bio": 10870,
      "lisis": 10871,
      "states": 10872,
      "porte": 10873,
      "тек": 10874,
      "countries": 10875,
      "cuerpo": 10876,
      "effective": 10877,
      "27": 10878,
      "tido": 10879,
      "menu": 10880,
      "луч": 10881,
      "contenido": 10882,
      "เป็น": 10883,
      "once": 10884,
      "partir": 10885,
      "cultural": 10886,
      "independ": 10887,
      "如果": 10888,
      "cup": 10889,
      "ships": 10890,
      "cribe": 10891,
      "YouTu": 10892,
      "neural": 10893,
      "espacio": 10894,
      "fill": 10895,
      "ager": 10896,
      "cru": 10897,
      "futuro": 10898,
      "cambio": 10899,
      "little": 10900,
      "Cer": 10901,
      "cidad": 10902,
      "generar": 10903,
      "unities": 10904,
      "occur": 10905,
      "noti": 10906,
      "written": 10907,
      "column": 10908,
      "вто": 10909,
      "iten": 10910,
      "phone": 10911,
      "videos": 10912,
      "incluyen": 10913,
      "String": 10914,
      "progres": 10915,
      "чь": 10916,
      "properties": 10917,
      "\");": 10918,
      "wers": 10919,
      "float": 10920,
      "Har": 10921,
      "May": 10922,
      "frut": 10923,
      "чита": 10924,
      "highly": 10925,
      "])": 10926,
      "ções": 10927,
      "title": 10928,
      "permit": 10929,
[...]
